{
  "sym2id": {
    "<UNK>": 0,
    "<PAD>": 1,
    "<BOS>": 2,
    "<EOS>": 3,
    "!": 4,
    "!</w>": 5,
    "\"": 6,
    "\"\"": 7,
    "\"\"\"": 8,
    "\"\"\"</w>": 9,
    "\"\"\"a</w>": 10,
    "\"\"\"add</w>": 11,
    "\"\"\"adds</w>": 12,
    "\"\"\"append</w>": 13,
    "\"\"\"applies</w>": 14,
    "\"\"\"apply</w>": 15,
    "\"\"\"auto</w>": 16,
    "\"\"\"check</w>": 17,
    "\"\"\"compute</w>": 18,
    "\"\"\"convert</w>": 19,
    "\"\"\"create</w>": 20,
    "\"\"\"creates</w>": 21,
    "\"\"\"find</w>": 22,
    "\"\"\"get</w>": 23,
    "\"\"\"id": 24,
    "\"\"\"id\"\"\"</w>": 25,
    "\"\"\"make</w>": 26,
    "\"\"\"parse</w>": 27,
    "\"\"\"parses</w>": 28,
    "\"\"\"perform</w>": 29,
    "\"\"\"print</w>": 30,
    "\"\"\"process</w>": 31,
    "\"\"\"return</w>": 32,
    "\"\"\"returns</w>": 33,
    "\"\"\"save</w>": 34,
    "\"\"\"send</w>": 35,
    "\"\"\"set</w>": 36,
    "\"\"\"sets</w>": 37,
    "\"\"\"stu": 38,
    "\"\"\"stub\"\"\"</w>": 39,
    "\"\"\"this</w>": 40,
    "\"\"\"update</w>": 41,
    "\"\"\"updates</w>": 42,
    "\"\"\"use</w>": 43,
    "\"\"\"yangdynclass</w>": 44,
    "\"\"\"yield</w>": 45,
    "\"\"</w>": 46,
    "\"'\"</w>": 47,
    "\"'</w>": 48,
    "\"0\"</w>": 49,
    "\"0</w>": 50,
    "\"1": 51,
    "\"1\"</w>": 52,
    "\"10</w>": 53,
    "\"1</w>": 54,
    "\"2\"</w>": 55,
    "\"2</w>": 56,
    "\"8": 57,
    "\"</w>": 58,
    "\"?\"</w>": 59,
    "\"?</w>": 60,
    "\"\\": 61,
    "\"\\\"\"</w>": 62,
    "\"\\r": 63,
    "\"\\r\\n\"</w>": 64,
    "\"\\t\"</w>": 65,
    "\"\\x": 66,
    "\"_": 67,
    "\"_\"</w>": 68,
    "\"__": 69,
    "\"__\"</w>": 70,
    "\"_id\"</w>": 71,
    "\"_utype\"</w>": 72,
    "\"`": 73,
    "\"`</w>": 74,
    "\"``</w>": 75,
    "\"a\"</w>": 76,
    "\"a</w>": 77,
    "\"action\"</w>": 78,
    "\"active\"</w>": 79,
    "\"add</w>": 80,
    "\"adding</w>": 81,
    "\"address\"</w>": 82,
    "\"admin\"</w>": 83,
    "\"age\"</w>": 84,
    "\"al": 85,
    "\"all\"</w>": 86,
    "\"amount\"</w>": 87,
    "\"an": 88,
    "\"an</w>": 89,
    "\"analy": 90,
    "\"and</w>": 91,
    "\"api</w>": 92,
    "\"application</w>": 93,
    "\"are</w>": 94,
    "\"args\"</w>": 95,
    "\"argument</w>": 96,
    "\"array</w>": 97,
    "\"ascii\"</w>": 98,
    "\"at</w>": 99,
    "\"attempting</w>": 100,
    "\"attributes\"</w>": 101,
    "\"author\"</w>": 102,
    "\"auto": 103,
    "\"b": 104,
    "\"c": 105,
    "\"cannot</w>": 106,
    "\"cen": 107,
    "\"center\"</w>": 108,
    "\"co": 109,
    "\"commen": 110,
    "\"comment\"</w>": 111,
    "\"config\"</w>": 112,
    "\"conten": 113,
    "\"content\"</w>": 114,
    "\"could</w>": 115,
    "\"couldn't</w>": 116,
    "\"d": 117,
    "\"descrip": 118,
    "\"description\"</w>": 119,
    "\"e": 120,
    "\"error\"</w>": 121,
    "\"error</w>": 122,
    "\"f": 123,
    "\"failed</w>": 124,
    "\"file</w>": 125,
    "\"foo": 126,
    "\"foo\"</w>": 127,
    "\"found</w>": 128,
    "\"g": 129,
    "\"h": 130,
    "\"header": 131,
    "\"headers\"</w>": 132,
    "\"http</w>": 133,
    "\"i": 134,
    "\"id\"</w>": 135,
    "\"in": 136,
    "\"invalid</w>": 137,
    "\"j": 138,
    "\"k": 139,
    "\"l": 140,
    "\"label": 141,
    "\"label\"</w>": 142,
    "\"le": 143,
    "\"left\"</w>": 144,
    "\"m": 145,
    "\"me": 146,
    "\"missing</w>": 147,
    "\"n": 148,
    "\"name\"</w>": 149,
    "\"no</w>": 150,
    "\"o": 151,
    "\"option": 152,
    "\"options\"</w>": 153,
    "\"p": 154,
    "\"path\"</w>": 155,
    "\"please</w>": 156,
    "\"post\"</w>": 157,
    "\"py": 158,
    "\"q": 159,
    "\"r": 160,
    "\"rb\"</w>": 161,
    "\"s": 162,
    "\"sel": 163,
    "\"select</w>": 164,
    "\"self\"</w>": 165,
    "\"status\"</w>": 166,
    "\"store_": 167,
    "\"store_true\"</w>": 168,
    "\"string\"</w>": 169,
    "\"t": 170,
    "\"the</w>": 171,
    "\"this</w>": 172,
    "\"time": 173,
    "\"timeout\"</w>": 174,
    "\"title\"</w>": 175,
    "\"type\"</w>": 176,
    "\"u": 177,
    "\"u\"</w>": 178,
    "\"un": 179,
    "\"update</w>": 180,
    "\"updating</w>": 181,
    "\"url\"</w>": 182,
    "\"urn</w>": 183,
    "\"use</w>": 184,
    "\"user\"</w>": 185,
    "\"user</w>": 186,
    "\"username\"</w>": 187,
    "\"using</w>": 188,
    "\"utf8\"</w>": 189,
    "\"utf</w>": 190,
    "\"v": 191,
    "\"verbo": 192,
    "\"verbose\"</w>": 193,
    "\"w": 194,
    "\"w\"</w>": 195,
    "\"wb\"</w>": 196,
    "\"x": 197,
    "\"y": 198,
    "\"y\"</w>": 199,
    "\"yes\"</w>": 200,
    "\"you</w>": 201,
    "\"z": 202,
    "#": 203,
    "#</w>": 204,
    "$": 205,
    "$</w>": 206,
    "%": 207,
    "%</w>": 208,
    "&": 209,
    "&</w>": 210,
    "'": 211,
    "'\"\"\"</w>": 212,
    "'\"'</w>": 213,
    "'\"</w>": 214,
    "''": 215,
    "'''": 216,
    "'''</w>": 217,
    "'''calculates</w>": 218,
    "''</w>": 219,
    "'0'</w>": 220,
    "'0</w>": 221,
    "'1": 222,
    "'1'</w>": 223,
    "'1</w>": 224,
    "'1d'</w>": 225,
    "'2": 226,
    "'2'</w>": 227,
    "'3": 228,
    "'4": 229,
    "'4'</w>": 230,
    "'5": 231,
    "'5</w>": 232,
    "'6": 233,
    "'7": 234,
    "'8": 235,
    "'9'</w>": 236,
    "'</w>": 237,
    "'?": 238,
    "'?'</w>": 239,
    "'\\": 240,
    "'\\0'</w>": 241,
    "'\\n'</w>": 242,
    "'\\r": 243,
    "'\\r\\n'</w>": 244,
    "'\\t'</w>": 245,
    "'\\x": 246,
    "'_": 247,
    "'_'</w>": 248,
    "'__": 249,
    "'__'</w>": 250,
    "'__call__": 251,
    "'__call__'</w>": 252,
    "'__iter__": 253,
    "'__iter__'</w>": 254,
    "'_id'</w>": 255,
    "'_return_": 256,
    "'_return_http_data_": 257,
    "'_return_http_data_only'</w>": 258,
    "'_set'</w>": 259,
    "'`": 260,
    "'`</w>": 261,
    "'``</w>": 262,
    "'a": 263,
    "'a'</w>": 264,
    "'a</w>": 265,
    "'ab": 266,
    "'abc'</w>": 267,
    "'accep": 268,
    "'accept'</w>": 269,
    "'access_": 270,
    "'access_token'</w>": 271,
    "'account_": 272,
    "'account_sid'</w>": 273,
    "'action": 274,
    "'action'</w>": 275,
    "'actions'</w>": 276,
    "'address'</w>": 277,
    "'al": 278,
    "'ali": 279,
    "'alias'</w>": 280,
    "'all'</w>": 281,
    "'alpha'</w>": 282,
    "'an": 283,
    "'api_": 284,
    "'append'</w>": 285,
    "'application</w>": 286,
    "'ar": 287,
    "'arch'</w>": 288,
    "'args'</w>": 289,
    "'ascii'</w>": 290,
    "'asyn": 291,
    "'async'</w>": 292,
    "'async_": 293,
    "'async_req'</w>": 294,
    "'asynchrono": 295,
    "'asynchronous'</w>": 296,
    "'authorization'</w>": 297,
    "'auto": 298,
    "'az": 299,
    "'azurearm</w>": 300,
    "'b": 301,
    "'baz'</w>": 302,
    "'bl": 303,
    "'black'</w>": 304,
    "'blue'</w>": 305,
    "'bo": 306,
    "'body'</w>": 307,
    "'boole": 308,
    "'boolean'</w>": 309,
    "'both'</w>": 310,
    "'botto": 311,
    "'bottom'</w>": 312,
    "'c": 313,
    "'call": 314,
    "'callback'</w>": 315,
    "'categor": 316,
    "'category'</w>": 317,
    "'cen": 318,
    "'center'</w>": 319,
    "'clas": 320,
    "'class'</w>": 321,
    "'client_": 322,
    "'client_id'</w>": 323,
    "'client_secret'</w>": 324,
    "'column": 325,
    "'columns'</w>": 326,
    "'com": 327,
    "'commen": 328,
    "'comment'</w>": 329,
    "'comments'</w>": 330,
    "'componen": 331,
    "'component'</w>": 332,
    "'confiden": 333,
    "'confidence'</w>": 334,
    "'constan": 335,
    "'constant'</w>": 336,
    "'conten": 337,
    "'content'</w>": 338,
    "'coordin": 339,
    "'coordinates'</w>": 340,
    "'d": 341,
    "'d</w>": 342,
    "'dar": 343,
    "'darwin'</w>": 344,
    "'dele": 345,
    "'delete'</w>": 346,
    "'descrip": 347,
    "'description'</w>": 348,
    "'detail": 349,
    "'details'</w>": 350,
    "'di": 351,
    "'distan": 352,
    "'distance'</w>": 353,
    "'div'</w>": 354,
    "'do": 355,
    "'domain'</w>": 356,
    "'dou": 357,
    "'double'</w>": 358,
    "'duration'</w>": 359,
    "'e": 360,
    "'en": 361,
    "'enabled'</w>": 362,
    "'end": 363,
    "'endpoint'</w>": 364,
    "'entities'</w>": 365,
    "'er_": 366,
    "'er_sample_name'</w>": 367,
    "'er_site_name'</w>": 368,
    "'er_specimen_name'</w>": 369,
    "'error": 370,
    "'error'</w>": 371,
    "'errors'</w>": 372,
    "'f": 373,
    "'filter": 374,
    "'filters'</w>": 375,
    "'float": 376,
    "'float32'</w>": 377,
    "'float64'</w>": 378,
    "'g": 379,
    "'gray'</w>": 380,
    "'gre": 381,
    "'green'</w>": 382,
    "'h": 383,
    "'handler": 384,
    "'handlers'</w>": 385,
    "'he": 386,
    "'head'</w>": 387,
    "'header": 388,
    "'headers'</w>": 389,
    "'height'</w>": 390,
    "'ho": 391,
    "'home'</w>": 392,
    "'host": 393,
    "'hostname'</w>": 394,
    "'hour": 395,
    "'hours'</w>": 396,
    "'href'</w>": 397,
    "'http_": 398,
    "'http_status'</w>": 399,
    "'i": 400,
    "'id'</w>": 401,
    "'in": 402,
    "'j": 403,
    "'jid'</w>": 404,
    "'k": 405,
    "'l": 406,
    "'label": 407,
    "'labels'</w>": 408,
    "'langu": 409,
    "'language'</w>": 410,
    "'lat'</w>": 411,
    "'le": 412,
    "'left'</w>": 413,
    "'link": 414,
    "'links'</w>": 415,
    "'linu": 416,
    "'linux'</w>": 417,
    "'ll</w>": 418,
    "'local": 419,
    "'localhost'</w>": 420,
    "'m": 421,
    "'m</w>": 422,
    "'magic_method_": 423,
    "'magic_method_codes'</w>": 424,
    "'me": 425,
    "'medi": 426,
    "'median'</w>": 427,
    "'member": 428,
    "'members'</w>": 429,
    "'meta'</w>": 430,
    "'metadata'</w>": 431,
    "'n": 432,
    "'na'</w>": 433,
    "'name'</w>": 434,
    "'new": 435,
    "'new'</w>": 436,
    "'ns'</w>": 437,
    "'nt'</w>": 438,
    "'num": 439,
    "'number'</w>": 440,
    "'o": 441,
    "'off": 442,
    "'offset'</w>": 443,
    "'option": 444,
    "'options'</w>": 445,
    "'os'</w>": 446,
    "'overall": 447,
    "'overallrc'</w>": 448,
    "'p": 449,
    "'parameter": 450,
    "'parameters'</w>": 451,
    "'pat": 452,
    "'patch'</w>": 453,
    "'pay": 454,
    "'payload'</w>": 455,
    "'perio": 456,
    "'period'</w>": 457,
    "'q": 458,
    "'r": 459,
    "'rb'</w>": 460,
    "'re</w>": 461,
    "'referen": 462,
    "'reference'</w>": 463,
    "'resul": 464,
    "'result'</w>": 465,
    "'results'</w>": 466,
    "'ret": 467,
    "'retcode'</w>": 468,
    "'s": 469,
    "'s</w>": 470,
    "'sel": 471,
    "'self'</w>": 472,
    "'sha": 473,
    "'sha1'</w>": 474,
    "'sign": 475,
    "'signature'</w>": 476,
    "'slu": 477,
    "'slug'</w>": 478,
    "'sock_": 479,
    "'sock_dir'</w>": 480,
    "'specimen": 481,
    "'specimens'</w>": 482,
    "'sr": 483,
    "'src'</w>": 484,
    "'store_": 485,
    "'store_true'</w>": 486,
    "'string'</w>": 487,
    "'sty": 488,
    "'style'</w>": 489,
    "'sub": 490,
    "'subject'</w>": 491,
    "'t": 492,
    "'t</w>": 493,
    "'tcp'</w>": 494,
    "'td'</w>": 495,
    "'the</w>": 496,
    "'thro": 497,
    "'throat</w>": 498,
    "'time": 499,
    "'timeout'</w>": 500,
    "'type'</w>": 501,
    "'u": 502,
    "'un": 503,
    "'unknow": 504,
    "'unknown'</w>": 505,
    "'urn</w>": 506,
    "'user": 507,
    "'user_": 508,
    "'user_id'</w>": 509,
    "'users'</w>": 510,
    "'ut": 511,
    "'utc'</w>": 512,
    "'utf": 513,
    "'utf8'</w>": 514,
    "'utf</w>": 515,
    "'v": 516,
    "'value'</w>": 517,
    "'ve</w>": 518,
    "'verbo": 519,
    "'verbose'</w>": 520,
    "'vol": 521,
    "'volume'</w>": 522,
    "'w": 523,
    "'w'</w>": 524,
    "'wb'</w>": 525,
    "'we": 526,
    "'weight'</w>": 527,
    "'wid": 528,
    "'width'</w>": 529,
    "'x": 530,
    "'x1'</w>": 531,
    "'y": 532,
    "'y'</w>": 533,
    "'ylab'</w>": 534,
    "'z": 535,
    "(": 536,
    "(</w>": 537,
    ")": 538,
    ")</w>": 539,
    "*": 540,
    "*</w>": 541,
    "+": 542,
    "+</w>": 543,
    ",": 544,
    ",</w>": 545,
    "-": 546,
    "-</w>": 547,
    ".": 548,
    ".</w>": 549,
    "/": 550,
    "/</w>": 551,
    "0": 552,
    "0\"</w>": 553,
    "0'</w>": 554,
    "00": 555,
    "00'</w>": 556,
    "000": 557,
    "000'</w>": 558,
    "0000": 559,
    "00000000": 560,
    "0001</w>": 561,
    "000</w>": 562,
    "00</w>": 563,
    "00\\x": 564,
    "00\\x00\\x": 565,
    "01": 566,
    "01</w>": 567,
    "02": 568,
    "02</w>": 569,
    "02x</w>": 570,
    "03": 571,
    "033</w>": 572,
    "03</w>": 573,
    "04": 574,
    "04x</w>": 575,
    "05": 576,
    "05</w>": 577,
    "06": 578,
    "07": 579,
    "08": 580,
    "080</w>": 581,
    "09": 582,
    "0</w>": 583,
    "0_": 584,
    "0`</w>": 585,
    "0``</w>": 586,
    "0b": 587,
    "0e": 588,
    "0e</w>": 589,
    "0f</w>": 590,
    "0m</w>": 591,
    "0o": 592,
    "0s</w>": 593,
    "0x": 594,
    "0x00": 595,
    "0x00</w>": 596,
    "0x01</w>": 597,
    "0x7": 598,
    "0x7f</w>": 599,
    "0x8": 600,
    "0xff</w>": 601,
    "0xffff": 602,
    "0xffffffff</w>": 603,
    "1": 604,
    "1\"</w>": 605,
    "1'</w>": 606,
    "10": 607,
    "10000": 608,
    "1000000</w>": 609,
    "100</w>": 610,
    "1024</w>": 611,
    "10</w>": 612,
    "11": 613,
    "1111": 614,
    "11</w>": 615,
    "12": 616,
    "1234</w>": 617,
    "12</w>": 618,
    "13": 619,
    "13</w>": 620,
    "14": 621,
    "15": 622,
    "16": 623,
    "168</w>": 624,
    "16</w>": 625,
    "16_": 626,
    "16_t</w>": 627,
    "17": 628,
    "18": 629,
    "19": 630,
    "1900</w>": 631,
    "192</w>": 632,
    "1</w>": 633,
    "1_": 634,
    "1`</w>": 635,
    "1``</w>": 636,
    "1b": 637,
    "1b</w>": 638,
    "1d": 639,
    "1d</w>": 640,
    "1e": 641,
    "1e3</w>": 642,
    "1e5</w>": 643,
    "1e6</w>": 644,
    "1e9</w>": 645,
    "1e</w>": 646,
    "1f": 647,
    "1f'</w>": 648,
    "1f</w>": 649,
    "1j</w>": 650,
    "1m</w>": 651,
    "1p</w>": 652,
    "1s</w>": 653,
    "1st</w>": 654,
    "1x</w>": 655,
    "2": 656,
    "2\"</w>": 657,
    "2'</w>": 658,
    "20": 659,
    "201": 660,
    "20</w>": 661,
    "21</w>": 662,
    "22": 663,
    "2222": 664,
    "22</w>": 665,
    "23": 666,
    "23</w>": 667,
    "24": 668,
    "24</w>": 669,
    "25": 670,
    "255</w>": 671,
    "256</w>": 672,
    "26": 673,
    "27": 674,
    "273</w>": 675,
    "28": 676,
    "29": 677,
    "2</w>": 678,
    "2_": 679,
    "2_add</w>": 680,
    "2`</w>": 681,
    "2``</w>": 682,
    "2d</w>": 683,
    "2e": 684,
    "2e</w>": 685,
    "2f": 686,
    "2f'</w>": 687,
    "2f</w>": 688,
    "2nd</w>": 689,
    "2xlarge'</w>": 690,
    "3": 691,
    "3\"</w>": 692,
    "3'</w>": 693,
    "30": 694,
    "30</w>": 695,
    "31'</w>": 696,
    "31</w>": 697,
    "32": 698,
    "32'</w>": 699,
    "32</w>": 700,
    "32_": 701,
    "32_t</w>": 702,
    "33": 703,
    "3333": 704,
    "33333333": 705,
    "333</w>": 706,
    "34": 707,
    "34567": 708,
    "34</w>": 709,
    "35": 710,
    "35</w>": 711,
    "36": 712,
    "3600</w>": 713,
    "36</w>": 714,
    "37": 715,
    "38": 716,
    "39": 717,
    "3</w>": 718,
    "3_": 719,
    "3a</w>": 720,
    "3c</w>": 721,
    "3d": 722,
    "3d</w>": 723,
    "3e": 724,
    "3e</w>": 725,
    "3f": 726,
    "3f\"</w>": 727,
    "3f</w>": 728,
    "3rd</w>": 729,
    "3to": 730,
    "3x3</w>": 731,
    "4": 732,
    "4\"</w>": 733,
    "4'</w>": 734,
    "40": 735,
    "404</w>": 736,
    "410</w>": 737,
    "41</w>": 738,
    "42": 739,
    "42</w>": 740,
    "43</w>": 741,
    "44": 742,
    "45": 743,
    "45</w>": 744,
    "46": 745,
    "47": 746,
    "48": 747,
    "49": 748,
    "4</w>": 749,
    "4_": 750,
    "4d": 751,
    "4d</w>": 752,
    "4e": 753,
    "4f</w>": 754,
    "4xlarge'</w>": 755,
    "5": 756,
    "5\"</w>": 757,
    "5'</w>": 758,
    "50": 759,
    "501</w>": 760,
    "509": 761,
    "509</w>": 762,
    "50</w>": 763,
    "512</w>": 764,
    "51</w>": 765,
    "52": 766,
    "52</w>": 767,
    "53</w>": 768,
    "54": 769,
    "55": 770,
    "56": 771,
    "567": 772,
    "57": 773,
    "58": 774,
    "59": 775,
    "59</w>": 776,
    "5</w>": 777,
    "5_": 778,
    "5e": 779,
    "5e</w>": 780,
    "5f</w>": 781,
    "6": 782,
    "6\"</w>": 783,
    "6'</w>": 784,
    "600</w>": 785,
    "60</w>": 786,
    "61</w>": 787,
    "62</w>": 788,
    "63</w>": 789,
    "64": 790,
    "64'</w>": 791,
    "64</w>": 792,
    "65": 793,
    "655": 794,
    "65535</w>": 795,
    "65536</w>": 796,
    "65</w>": 797,
    "66": 798,
    "6666": 799,
    "67": 800,
    "68": 801,
    "69": 802,
    "6</w>": 803,
    "6_": 804,
    "6f</w>": 805,
    "7": 806,
    "7\"</w>": 807,
    "7'</w>": 808,
    "700</w>": 809,
    "70</w>": 810,
    "71</w>": 811,
    "72</w>": 812,
    "73</w>": 813,
    "74</w>": 814,
    "75</w>": 815,
    "76": 816,
    "77": 817,
    "78": 818,
    "79": 819,
    "7</w>": 820,
    "8": 821,
    "8\"</w>": 822,
    "8'</w>": 823,
    "8000</w>": 824,
    "800</w>": 825,
    "8080</w>": 826,
    "80</w>": 827,
    "81</w>": 828,
    "82</w>": 829,
    "84</w>": 830,
    "85</w>": 831,
    "86": 832,
    "8601</w>": 833,
    "86</w>": 834,
    "87": 835,
    "88": 836,
    "8859</w>": 837,
    "89": 838,
    "8</w>": 839,
    "8_": 840,
    "8xlarge'</w>": 841,
    "9": 842,
    "9\"</w>": 843,
    "9'</w>": 844,
    "900</w>": 845,
    "90</w>": 846,
    "91</w>": 847,
    "92</w>": 848,
    "93</w>": 849,
    "94</w>": 850,
    "95": 851,
    "95</w>": 852,
    "96": 853,
    "96</w>": 854,
    "97": 855,
    "98": 856,
    "98</w>": 857,
    "99": 858,
    "9999": 859,
    "99999999": 860,
    "999</w>": 861,
    "9</w>": 862,
    "9_</w>": 863,
    "9a</w>": 864,
    ":": 865,
    ":</w>": 866,
    ";": 867,
    ";</w>": 868,
    "<": 869,
    "</w>": 870,
    "<</w>": 871,
    "=": 872,
    "=</w>": 873,
    ">": 874,
    "></w>": 875,
    "?": 876,
    "?\"</w>": 877,
    "?'</w>": 878,
    "?</w>": 879,
    "??": 880,
    "???</w>": 881,
    "?\\</w>": 882,
    "?\\d</w>": 883,
    "?id</w>": 884,
    "?p</w>": 885,
    "@": 886,
    "@</w>": 887,
    "[": 888,
    "[</w>": 889,
    "\\": 890,
    "\\\"\"</w>": 891,
    "\\\"</w>": 892,
    "\\''</w>": 893,
    "\\'</w>": 894,
    "\\'s</w>": 895,
    "\\'t</w>": 896,
    "\\033</w>": 897,
    "\\</w>": 898,
    "\\\\": 899,
    "\\`</w>": 900,
    "\\a</w>": 901,
    "\\alpha</w>": 902,
    "\\b</w>": 903,
    "\\beta</w>": 904,
    "\\cdot</w>": 905,
    "\\d": 906,
    "\\d</w>": 907,
    "\\d\\</w>": 908,
    "\\end</w>": 909,
    "\\frac</w>": 910,
    "\\gamma</w>": 911,
    "\\lambda</w>": 912,
    "\\left</w>": 913,
    "\\log</w>": 914,
    "\\math": 915,
    "\\mathbf</w>": 916,
    "\\mathrm</w>": 917,
    "\\mu</w>": 918,
    "\\n": 919,
    "\\n\"</w>": 920,
    "\\n'</w>": 921,
    "\\n</w>": 922,
    "\\n\\n\"</w>": 923,
    "\\n\\n'</w>": 924,
    "\\n\\n</w>": 925,
    "\\omega</w>": 926,
    "\\partial</w>": 927,
    "\\pi</w>": 928,
    "\\r": 929,
    "\\r\\n": 930,
    "\\r\\n'</w>": 931,
    "\\r\\n</w>": 932,
    "\\s</w>": 933,
    "\\sigma</w>": 934,
    "\\sqrt</w>": 935,
    "\\sum_</w>": 936,
    "\\t": 937,
    "\\t</w>": 938,
    "\\u": 939,
    "\\w": 940,
    "\\w</w>": 941,
    "\\x": 942,
    "\\x1b</w>": 943,
    "]": 944,
    "]</w>": 945,
    "^": 946,
    "^</w>": 947,
    "_": 948,
    "_'</w>": 949,
    "_2</w>": 950,
    "_</w>": 951,
    "__": 952,
    "___</w>": 953,
    "____": 954,
    "________": 955,
    "________________": 956,
    "__call__</w>": 957,
    "__class__</w>": 958,
    "__code__</w>": 959,
    "__dict__</w>": 960,
    "__doc__</w>": 961,
    "__file__</w>": 962,
    "__g": 963,
    "__grains__</w>": 964,
    "__import__</w>": 965,
    "__init__</w>": 966,
    "__module__</w>": 967,
    "__name__</w>": 968,
    "__op": 969,
    "__opts__</w>": 970,
    "__path__</w>": 971,
    "__proxy__</w>": 972,
    "__sal": 973,
    "__salt__</w>": 974,
    "__setattr__</w>": 975,
    "__setitem__</w>": 976,
    "__str__</w>": 977,
    "__utils__</w>": 978,
    "__version__</w>": 979,
    "_a</w>": 980,
    "_adapter</w>": 981,
    "_add_": 982,
    "_all_": 983,
    "_api</w>": 984,
    "_app</w>": 985,
    "_apply_": 986,
    "_args</w>": 987,
    "_b": 988,
    "_buffer</w>": 989,
    "_build_": 990,
    "_c</w>": 991,
    "_cache</w>": 992,
    "_call</w>": 993,
    "_call_": 994,
    "_callback</w>": 995,
    "_callbacks</w>": 996,
    "_catalog_session</w>": 997,
    "_channel</w>": 998,
    "_check": 999,
    "_check_": 1000,
    "_children</w>": 1001,
    "_class</w>": 1002,
    "_client</w>": 1003,
    "_closed</w>": 1004,
    "_color</w>": 1005,
    "_columns</w>": 1006,
    "_compute_": 1007,
    "_con": 1008,
    "_config</w>": 1009,
    "_count</w>": 1010,
    "_create_": 1011,
    "_ctx</w>": 1012,
    "_current_": 1013,
    "_cursor</w>": 1014,
    "_d</w>": 1015,
    "_data</w>": 1016,
    "_data_": 1017,
    "_db</w>": 1018,
    "_debug</w>": 1019,
    "_default</w>": 1020,
    "_default_": 1021,
    "_defaults</w>": 1022,
    "_delete</w>": 1023,
    "_delete_": 1024,
    "_deserialize</w>": 1025,
    "_device</w>": 1026,
    "_df</w>": 1027,
    "_dict</w>": 1028,
    "_do_": 1029,
    "_element</w>": 1030,
    "_en": 1031,
    "_ensure_": 1032,
    "_env</w>": 1033,
    "_error</w>": 1034,
    "_execute</w>": 1035,
    "_exit</w>": 1036,
    "_expr</w>": 1037,
    "_extmethods</w>": 1038,
    "_extract_": 1039,
    "_f": 1040,
    "_find_": 1041,
    "_format_": 1042,
    "_g": 1043,
    "_generate_": 1044,
    "_get": 1045,
    "_get_": 1046,
    "_getrow": 1047,
    "_getrowvalue</w>": 1048,
    "_h": 1049,
    "_handle_": 1050,
    "_has_": 1051,
    "_header</w>": 1052,
    "_i</w>": 1053,
    "_id</w>": 1054,
    "_image</w>": 1055,
    "_in": 1056,
    "_index</w>": 1057,
    "_init_": 1058,
    "_inner_": 1059,
    "_inner_api_calls</w>": 1060,
    "_is_": 1061,
    "_items</w>": 1062,
    "_j": 1063,
    "_k": 1064,
    "_key</w>": 1065,
    "_keys</w>": 1066,
    "_l": 1067,
    "_last_": 1068,
    "_load_": 1069,
    "_log</w>": 1070,
    "_logger</w>": 1071,
    "_m": 1072,
    "_make_": 1073,
    "_max_": 1074,
    "_merge_": 1075,
    "_meta</w>": 1076,
    "_method_configs</w>": 1077,
    "_mode</w>": 1078,
    "_model</w>": 1079,
    "_my_": 1080,
    "_my_map</w>": 1081,
    "_n": 1082,
    "_name</w>": 1083,
    "_o": 1084,
    "_o</w>": 1085,
    "_obj</w>": 1086,
    "_offset</w>": 1087,
    "_on_": 1088,
    "_options</w>": 1089,
    "_os</w>": 1090,
    "_output</w>": 1091,
    "_p</w>": 1092,
    "_parameters</w>": 1093,
    "_params</w>": 1094,
    "_parent</w>": 1095,
    "_parse</w>": 1096,
    "_parse_": 1097,
    "_parser</w>": 1098,
    "_password</w>": 1099,
    "_path</w>": 1100,
    "_path_helper</w>": 1101,
    "_paths</w>": 1102,
    "_pf": 1103,
    "_port</w>": 1104,
    "_pos</w>": 1105,
    "_post</w>": 1106,
    "_pot</w>": 1107,
    "_prefix</w>": 1108,
    "_prepare_": 1109,
    "_print</w>": 1110,
    "_process</w>": 1111,
    "_process_": 1112,
    "_properties</w>": 1113,
    "_protocol</w>": 1114,
    "_proxy</w>": 1115,
    "_proxy_port</w>": 1116,
    "_proxy_url</w>": 1117,
    "_py": 1118,
    "_q": 1119,
    "_query</w>": 1120,
    "_query_": 1121,
    "_queue</w>": 1122,
    "_r": 1123,
    "_read_": 1124,
    "_remove_": 1125,
    "_request</w>": 1126,
    "_run_": 1127,
    "_runtime</w>": 1128,
    "_s</w>": 1129,
    "_schema</w>": 1130,
    "_securityhandler</w>": 1131,
    "_send</w>": 1132,
    "_send_": 1133,
    "_serialize</w>": 1134,
    "_server</w>": 1135,
    "_session</w>": 1136,
    "_set</w>": 1137,
    "_set_": 1138,
    "_settings</w>": 1139,
    "_setup_": 1140,
    "_size</w>": 1141,
    "_sock</w>": 1142,
    "_socket</w>": 1143,
    "_solution</w>": 1144,
    "_source</w>": 1145,
    "_split_": 1146,
    "_src</w>": 1147,
    "_start</w>": 1148,
    "_start_": 1149,
    "_state</w>": 1150,
    "_stats</w>": 1151,
    "_status</w>": 1152,
    "_store</w>": 1153,
    "_str</w>": 1154,
    "_stream</w>": 1155,
    "_sub": 1156,
    "_t": 1157,
    "_t</w>": 1158,
    "_table</w>": 1159,
    "_text</w>": 1160,
    "_time</w>": 1161,
    "_to_": 1162,
    "_type</w>": 1163,
    "_u": 1164,
    "_un": 1165,
    "_unwrap_": 1166,
    "_update</w>": 1167,
    "_update_": 1168,
    "_uri</w>": 1169,
    "_url</w>": 1170,
    "_user</w>": 1171,
    "_utype</w>": 1172,
    "_v": 1173,
    "_validate_": 1174,
    "_value</w>": 1175,
    "_values</w>": 1176,
    "_version</w>": 1177,
    "_w": 1178,
    "_write_": 1179,
    "_x": 1180,
    "_x</w>": 1181,
    "_y</w>": 1182,
    "_z": 1183,
    "`": 1184,
    "`\"\"\"</w>": 1185,
    "`\"</w>": 1186,
    "`'</w>": 1187,
    "`'s</w>": 1188,
    "`</w>": 1189,
    "`\\": 1190,
    "`_": 1191,
    "`_</w>": 1192,
    "``": 1193,
    "``0``</w>": 1194,
    "``1``</w>": 1195,
    "``</w>": 1196,
    "``bool``</w>": 1197,
    "``data": 1198,
    "``data``</w>": 1199,
    "``false``</w>": 1200,
    "``id``</w>": 1201,
    "``int``</w>": 1202,
    "``key``</w>": 1203,
    "``metadata</w>": 1204,
    "``n": 1205,
    "``n``</w>": 1206,
    "``none``</w>": 1207,
    "``null": 1208,
    "``null``</w>": 1209,
    "``o": 1210,
    "``path``</w>": 1211,
    "``sel": 1212,
    "``self</w>": 1213,
    "``self``</w>": 1214,
    "``str``</w>": 1215,
    "``string``</w>": 1216,
    "``supports_": 1217,
    "``true``</w>": 1218,
    "``value": 1219,
    "``value``</w>": 1220,
    "``valueerror": 1221,
    "``valueerror``</w>": 1222,
    "``x": 1223,
    "``x``</w>": 1224,
    "`a</w>": 1225,
    "`a`</w>": 1226,
    "`args`</w>": 1227,
    "`b": 1228,
    "`b`</w>": 1229,
    "`bool`</w>": 1230,
    "`callback`</w>": 1231,
    "`d": 1232,
    "`dict`</w>": 1233,
    "`f`</w>": 1234,
    "`false`</w>": 1235,
    "`filename`</w>": 1236,
    "`float`</w>": 1237,
    "`func`</w>": 1238,
    "`g": 1239,
    "`get_": 1240,
    "`github</w>": 1241,
    "`i`</w>": 1242,
    "`int`</w>": 1243,
    "`j": 1244,
    "`k": 1245,
    "`k`</w>": 1246,
    "`key`</w>": 1247,
    "`l": 1248,
    "`list`</w>": 1249,
    "`m`</w>": 1250,
    "`matplotlib</w>": 1251,
    "`n": 1252,
    "`n`</w>": 1253,
    "`node": 1254,
    "`node`</w>": 1255,
    "`none`</w>": 1256,
    "`o": 1257,
    "`pandas</w>": 1258,
    "`path`</w>": 1259,
    "`pint</w>": 1260,
    "`py": 1261,
    "`q": 1262,
    "`r": 1263,
    "`requests</w>": 1264,
    "`s</w>": 1265,
    "`s`</w>": 1266,
    "`scipy</w>": 1267,
    "`sel": 1268,
    "`self</w>": 1269,
    "`self`</w>": 1270,
    "`start`</w>": 1271,
    "`str`</w>": 1272,
    "`string`</w>": 1273,
    "`sub": 1274,
    "`sys</w>": 1275,
    "`t": 1276,
    "`tensor": 1277,
    "`tensor`</w>": 1278,
    "`tf</w>": 1279,
    "`true`</w>": 1280,
    "`tuple`</w>": 1281,
    "`typing</w>": 1282,
    "`unicode": 1283,
    "`unicode`</w>": 1284,
    "`v": 1285,
    "`value": 1286,
    "`value`</w>": 1287,
    "`w": 1288,
    "`x": 1289,
    "`x`</w>": 1290,
    "`y`</w>": 1291,
    "a": 1292,
    "a\"</w>": 1293,
    "a'</w>": 1294,
    "a0</w>": 1295,
    "a1</w>": 1296,
    "a2": 1297,
    "a2</w>": 1298,
    "a3</w>": 1299,
    "a4": 1300,
    "a6": 1301,
    "a7": 1302,
    "a9": 1303,
    "a</w>": 1304,
    "a_": 1305,
    "a_datetime</w>": 1306,
    "a`</w>": 1307,
    "a``</w>": 1308,
    "aa": 1309,
    "aaaa": 1310,
    "ab": 1311,
    "ab</w>": 1312,
    "ab_": 1313,
    "abbix</w>": 1314,
    "abbrevi": 1315,
    "abbreviation'</w>": 1316,
    "abbreviation</w>": 1317,
    "abbreviations</w>": 1318,
    "abcorr</w>": 1319,
    "abel": 1320,
    "abel</w>": 1321,
    "abiliti": 1322,
    "abilities</w>": 1323,
    "ability</w>": 1324,
    "able\"</w>": 1325,
    "able</w>": 1326,
    "able_": 1327,
    "abled'</w>": 1328,
    "abled</w>": 1329,
    "abledfor</w>": 1330,
    "ables</w>": 1331,
    "abling</w>": 1332,
    "ably</w>": 1333,
    "abo": 1334,
    "aborn</w>": 1335,
    "above</w>": 1336,
    "abridge</w>": 1337,
    "abs</w>": 1338,
    "abs_": 1339,
    "abscis": 1340,
    "absent</w>": 1341,
    "absol": 1342,
    "absolute</w>": 1343,
    "absolute_": 1344,
    "abspath</w>": 1345,
    "abstract": 1346,
    "abstract</w>": 1347,
    "abul": 1348,
    "ac": 1349,
    "ac</w>": 1350,
    "accep": 1351,
    "accept</w>": 1352,
    "accept_": 1353,
    "acceptable</w>": 1354,
    "acceptan": 1355,
    "acceptance_": 1356,
    "acceptance_criteria</w>": 1357,
    "accepted</w>": 1358,
    "acces": 1359,
    "access</w>": 1360,
    "access_": 1361,
    "access_key</w>": 1362,
    "access_key_id</w>": 1363,
    "access_token</w>": 1364,
    "accessed</w>": 1365,
    "accessor</w>": 1366,
    "according</w>": 1367,
    "accoun": 1368,
    "account</w>": 1369,
    "account_": 1370,
    "account_sid</w>": 1371,
    "accumul": 1372,
    "accuracy</w>": 1373,
    "ace": 1374,
    "ace</w>": 1375,
    "acen": 1376,
    "ach</w>": 1377,
    "ach_": 1378,
    "achable</w>": 1379,
    "ache": 1380,
    "ache</w>": 1381,
    "ache_": 1382,
    "ached</w>": 1383,
    "ached_": 1384,
    "aches</w>": 1385,
    "aching</w>": 1386,
    "aci": 1387,
    "acing</w>": 1388,
    "ack": 1389,
    "ack'</w>": 1390,
    "ack</w>": 1391,
    "acklist</w>": 1392,
    "acknow": 1393,
    "acknowled": 1394,
    "acknowledged</w>": 1395,
    "acobi": 1396,
    "acon</w>": 1397,
    "acquire</w>": 1398,
    "acquired</w>": 1399,
    "act</w>": 1400,
    "acti": 1401,
    "action\"</w>": 1402,
    "action'</w>": 1403,
    "action</w>": 1404,
    "action_id</w>": 1405,
    "actions</w>": 1406,
    "activ": 1407,
    "activate</w>": 1408,
    "activated</w>": 1409,
    "activation": 1410,
    "activation</w>": 1411,
    "activations</w>": 1412,
    "active\"</w>": 1413,
    "active</w>": 1414,
    "actly</w>": 1415,
    "actly_one</w>": 1416,
    "actocen": 1417,
    "actor</w>": 1418,
    "actu": 1419,
    "actual_": 1420,
    "actually</w>": 1421,
    "acy</w>": 1422,
    "ad": 1423,
    "ad\"</w>": 1424,
    "ad'</w>": 1425,
    "ad</w>": 1426,
    "ad_": 1427,
    "adap": 1428,
    "adapted</w>": 1429,
    "adapter</w>": 1430,
    "adapters</w>": 1431,
    "add": 1432,
    "add</w>": 1433,
    "add_": 1434,
    "add_arg</w>": 1435,
    "add_argument</w>": 1436,
    "add_argument_group</w>": 1437,
    "add_axes</w>": 1438,
    "add_child</w>": 1439,
    "add_done_callback</w>": 1440,
    "add_edge</w>": 1441,
    "add_hparam</w>": 1442,
    "add_message</w>": 1443,
    "add_option</w>": 1444,
    "add_parser</w>": 1445,
    "add_row</w>": 1446,
    "add_section</w>": 1447,
    "add_subplot</w>": 1448,
    "addcallback</w>": 1449,
    "addchild</w>": 1450,
    "addcons</w>": 1451,
    "added</w>": 1452,
    "adding</w>": 1453,
    "addition": 1454,
    "additional</w>": 1455,
    "additional_": 1456,
    "additionally</w>": 1457,
    "addr</w>": 1458,
    "addres": 1459,
    "address\"</w>": 1460,
    "address'</w>": 1461,
    "address</w>": 1462,
    "addresses</w>": 1463,
    "adds</w>": 1464,
    "ade</w>": 1465,
    "adecimal</w>": 1466,
    "aded</w>": 1467,
    "adence</w>": 1468,
    "ader": 1469,
    "ader</w>": 1470,
    "ading</w>": 1471,
    "adj": 1472,
    "adjacen": 1473,
    "adjacency</w>": 1474,
    "adju": 1475,
    "adjust</w>": 1476,
    "adjusted</w>": 1477,
    "adline</w>": 1478,
    "admin": 1479,
    "admin\"</w>": 1480,
    "admin</w>": 1481,
    "admin_": 1482,
    "admin_password</w>": 1483,
    "adminsession</w>": 1484,
    "ado</w>": 1485,
    "adratic</w>": 1486,
    "adrature</w>": 1487,
    "ads</w>": 1488,
    "adv": 1489,
    "advan": 1490,
    "advanced</w>": 1491,
    "adver": 1492,
    "adversari": 1493,
    "ae": 1494,
    "aead</w>": 1495,
    "aene": 1496,
    "aeneas</w>": 1497,
    "aex</w>": 1498,
    "af": 1499,
    "af</w>": 1500,
    "af_": 1501,
    "af_inet": 1502,
    "af_inet6</w>": 1503,
    "af_inet</w>": 1504,
    "aff": 1505,
    "aff4": 1506,
    "aff4</w>": 1507,
    "affili": 1508,
    "affiliation</w>": 1509,
    "affold</w>": 1510,
    "affolds</w>": 1511,
    "after": 1512,
    "after</w>": 1513,
    "afterwards</w>": 1514,
    "ag": 1515,
    "ag</w>": 1516,
    "ag_": 1517,
    "aga": 1518,
    "age": 1519,
    "age\"</w>": 1520,
    "age'</w>": 1521,
    "age</w>": 1522,
    "age_": 1523,
    "aged</w>": 1524,
    "aged_": 1525,
    "agement</w>": 1526,
    "agen": 1527,
    "agency</w>": 1528,
    "agent": 1529,
    "agent'</w>": 1530,
    "agent</w>": 1531,
    "ager": 1532,
    "ager</w>": 1533,
    "agers</w>": 1534,
    "ages</w>": 1535,
    "agg": 1536,
    "agg</w>": 1537,
    "aggreg": 1538,
    "aggregation</w>": 1539,
    "aggregations</w>": 1540,
    "aggregator</w>": 1541,
    "agno": 1542,
    "agon": 1543,
    "agram</w>": 1544,
    "agrant</w>": 1545,
    "ags</w>": 1546,
    "ah": 1547,
    "ahn_": 1548,
    "ai": 1549,
    "aif</w>": 1550,
    "ail": 1551,
    "ail</w>": 1552,
    "aim</w>": 1553,
    "aims</w>": 1554,
    "ain'</w>": 1555,
    "ain</w>": 1556,
    "ain_": 1557,
    "ained</w>": 1558,
    "aintext</w>": 1559,
    "aio": 1560,
    "aiohttp</w>": 1561,
    "aiox": 1562,
    "aioxmpp</w>": 1563,
    "airo</w>": 1564,
    "aive</w>": 1565,
    "aj": 1566,
    "ajax</w>": 1567,
    "ak": 1568,
    "ak</w>": 1569,
    "ake</w>": 1570,
    "ake_": 1571,
    "al": 1572,
    "al\"</w>": 1573,
    "al'</w>": 1574,
    "al</w>": 1575,
    "al_": 1576,
    "al_number</w>": 1577,
    "alarm</w>": 1578,
    "alarms</w>": 1579,
    "album</w>": 1580,
    "alect</w>": 1581,
    "alerror</w>": 1582,
    "alesce</w>": 1583,
    "alg</w>": 1584,
    "algo</w>": 1585,
    "algorith": 1586,
    "algorithm</w>": 1587,
    "algorithms</w>": 1588,
    "ali": 1589,
    "alias'</w>": 1590,
    "alias</w>": 1591,
    "alias_": 1592,
    "aliased</w>": 1593,
    "aliases</w>": 1594,
    "alifi": 1595,
    "alig": 1596,
    "align": 1597,
    "alignak</w>": 1598,
    "alignmen": 1599,
    "alignment</w>": 1600,
    "alignments</w>": 1601,
    "aling</w>": 1602,
    "ality</w>": 1603,
    "alive</w>": 1604,
    "aliz": 1605,
    "alization</w>": 1606,
    "alize</w>": 1607,
    "all": 1608,
    "all\"</w>": 1609,
    "all'</w>": 1610,
    "all</w>": 1611,
    "all_": 1612,
    "allclose</w>": 1613,
    "allo": 1614,
    "allow_": 1615,
    "allow_empty</w>": 1616,
    "ally</w>": 1617,
    "alog": 1618,
    "alog</w>": 1619,
    "alpha</w>": 1620,
    "alpha_": 1621,
    "alphabet</w>": 1622,
    "alphanumeric</w>": 1623,
    "alphas</w>": 1624,
    "already": 1625,
    "already</w>": 1626,
    "already_": 1627,
    "als'</w>": 1628,
    "als</w>": 1629,
    "also</w>": 1630,
    "alt</w>": 1631,
    "alt_": 1632,
    "alter</w>": 1633,
    "altered</w>": 1634,
    "altern": 1635,
    "alternate</w>": 1636,
    "alternati": 1637,
    "alternatively</w>": 1638,
    "alternatives</w>": 1639,
    "although</w>": 1640,
    "altitu": 1641,
    "altitude</w>": 1642,
    "alts</w>": 1643,
    "alway": 1644,
    "always</w>": 1645,
    "always_": 1646,
    "aly": 1647,
    "am": 1648,
    "am'</w>": 1649,
    "am</w>": 1650,
    "am_": 1651,
    "am_file</w>": 1652,
    "amazon": 1653,
    "amazonaws</w>": 1654,
    "ambien": 1655,
    "ambiguo": 1656,
    "amble</w>": 1657,
    "ame": 1658,
    "ame</w>": 1659,
    "amel": 1660,
    "amera</w>": 1661,
    "amera_": 1662,
    "amfile</w>": 1663,
    "amg</w>": 1664,
    "amine</w>": 1665,
    "aml": 1666,
    "aml</w>": 1667,
    "aml_": 1668,
    "amo": 1669,
    "amoun": 1670,
    "amount\"</w>": 1671,
    "amount'</w>": 1672,
    "amount</w>": 1673,
    "ampaign</w>": 1674,
    "ampaign_id</w>": 1675,
    "ample</w>": 1676,
    "ample_": 1677,
    "amples</w>": 1678,
    "amplitu": 1679,
    "amplitude</w>": 1680,
    "amq": 1681,
    "amqp</w>": 1682,
    "ams</w>": 1683,
    "an": 1684,
    "an'</w>": 1685,
    "an</w>": 1686,
    "an_": 1687,
    "an`</w>": 1688,
    "analog</w>": 1689,
    "analy": 1690,
    "analyse</w>": 1691,
    "analyses</w>": 1692,
    "analysis</w>": 1693,
    "analysis_": 1694,
    "analysistype</w>": 1695,
    "analyte</w>": 1696,
    "analytes</w>": 1697,
    "analytics</w>": 1698,
    "analyze</w>": 1699,
    "analyzed</w>": 1700,
    "analyzer</w>": 1701,
    "ance</w>": 1702,
    "ancestor</w>": 1703,
    "ancestors</w>": 1704,
    "anchor": 1705,
    "anchor</w>": 1706,
    "anchors</w>": 1707,
    "and": 1708,
    "and</w>": 1709,
    "and_": 1710,
    "and_stddevs</w>": 1711,
    "andi</w>": 1712,
    "ane</w>": 1713,
    "ang": 1714,
    "ang</w>": 1715,
    "ang_": 1716,
    "angle</w>": 1717,
    "angles</w>": 1718,
    "ango": 1719,
    "ango</w>": 1720,
    "ango_": 1721,
    "angul": 1722,
    "angular</w>": 1723,
    "ani": 1724,
    "aning</w>": 1725,
    "aniso": 1726,
    "anisotropy_": 1727,
    "anness</w>": 1728,
    "anno": 1729,
    "annot": 1730,
    "annotdf</w>": 1731,
    "announ": 1732,
    "announce</w>": 1733,
    "ano": 1734,
    "anomaly</w>": 1735,
    "anon": 1736,
    "anony": 1737,
    "anonymo": 1738,
    "anoroll</w>": 1739,
    "ans</w>": 1740,
    "ansi</w>": 1741,
    "ansi_": 1742,
    "ansible</w>": 1743,
    "answer</w>": 1744,
    "answers</w>": 1745,
    "ant</w>": 1746,
    "antecedent</w>": 1747,
    "antenn": 1748,
    "anti": 1749,
    "ants</w>": 1750,
    "antsimage</w>": 1751,
    "anu": 1752,
    "any": 1753,
    "any</w>": 1754,
    "anymore</w>": 1755,
    "anything</w>": 1756,
    "anyway</w>": 1757,
    "anywhere</w>": 1758,
    "ao": 1759,
    "ao</w>": 1760,
    "ap": 1761,
    "ap</w>": 1762,
    "apal": 1763,
    "ape</w>": 1764,
    "api": 1765,
    "api</w>": 1766,
    "api_": 1767,
    "api_calls</w>": 1768,
    "api_core</w>": 1769,
    "api_key</w>": 1770,
    "api_path</w>": 1771,
    "api_url</w>": 1772,
    "api_version</w>": 1773,
    "apic_": 1774,
    "apikey</w>": 1775,
    "apl": 1776,
    "aplaci": 1777,
    "app": 1778,
    "app</w>": 1779,
    "appa</w>": 1780,
    "append": 1781,
    "append'</w>": 1782,
    "append</w>": 1783,
    "appendchild</w>": 1784,
    "apping</w>": 1785,
    "appli": 1786,
    "applicable</w>": 1787,
    "application": 1788,
    "application</w>": 1789,
    "application_": 1790,
    "applications</w>": 1791,
    "applied</w>": 1792,
    "applies</w>": 1793,
    "apply</w>": 1794,
    "apply_": 1795,
    "apply_async</w>": 1796,
    "appro": 1797,
    "approach</w>": 1798,
    "appropri": 1799,
    "appropriate</w>": 1800,
    "appropriately</w>": 1801,
    "approval</w>": 1802,
    "approved</w>": 1803,
    "aps</w>": 1804,
    "apse</w>": 1805,
    "apses</w>": 1806,
    "aq</w>": 1807,
    "ar": 1808,
    "ar</w>": 1809,
    "ar_": 1810,
    "aran": 1811,
    "arante": 1812,
    "aration</w>": 1813,
    "arations</w>": 1814,
    "arb": 1815,
    "arbage</w>": 1816,
    "arbitrary</w>": 1817,
    "arccos</w>": 1818,
    "arch</w>": 1819,
    "archi": 1820,
    "archive</w>": 1821,
    "archive_": 1822,
    "archived</w>": 1823,
    "archiver</w>": 1824,
    "archives</w>": 1825,
    "arcname</w>": 1826,
    "arcs</w>": 1827,
    "arcsec</w>": 1828,
    "arctan2</w>": 1829,
    "arctan</w>": 1830,
    "ard": 1831,
    "ard</w>": 1832,
    "ard_": 1833,
    "arding</w>": 1834,
    "ardinterrupt</w>": 1835,
    "ardless</w>": 1836,
    "ardmarkup</w>": 1837,
    "are": 1838,
    "are</w>": 1839,
    "area'</w>": 1840,
    "area</w>": 1841,
    "area_": 1842,
    "areas</w>": 1843,
    "ared</w>": 1844,
    "ared_": 1845,
    "aren": 1846,
    "aren't</w>": 1847,
    "ares</w>": 1848,
    "arg": 1849,
    "arg1</w>": 1850,
    "arg</w>": 1851,
    "arg_": 1852,
    "arg_parser</w>": 1853,
    "argcount</w>": 1854,
    "arge'</w>": 1855,
    "arge</w>": 1856,
    "arger</w>": 1857,
    "argest</w>": 1858,
    "argmax</w>": 1859,
    "argmin</w>": 1860,
    "args\"</w>": 1861,
    "args'</w>": 1862,
    "args</w>": 1863,
    "args`</w>": 1864,
    "argtypes</w>": 1865,
    "argumen": 1866,
    "argument\"</w>": 1867,
    "argument</w>": 1868,
    "argument_group</w>": 1869,
    "argumenterror</w>": 1870,
    "argumentparser</w>": 1871,
    "arguments\"</w>": 1872,
    "arguments'</w>": 1873,
    "arguments</w>": 1874,
    "argv</w>": 1875,
    "argval</w>": 1876,
    "ari": 1877,
    "aries</w>": 1878,
    "ario</w>": 1879,
    "arios</w>": 1880,
    "arities</w>": 1881,
    "arity</w>": 1882,
    "arly</w>": 1883,
    "arm</w>": 1884,
    "arms</w>": 1885,
    "around</w>": 1886,
    "arr</w>": 1887,
    "arra": 1888,
    "array": 1889,
    "array</w>": 1890,
    "array_": 1891,
    "array_like</w>": 1892,
    "arrays</w>": 1893,
    "arrow</w>": 1894,
    "ars</w>": 1895,
    "arter</w>": 1896,
    "arti": 1897,
    "artifact</w>": 1898,
    "artifact_": 1899,
    "artifacts</w>": 1900,
    "arx": 1901,
    "arxiv</w>": 1902,
    "ary": 1903,
    "ary</w>": 1904,
    "ary_": 1905,
    "arypr": 1906,
    "aryprftc</w>": 1907,
    "as": 1908,
    "as'</w>": 1909,
    "as</w>": 1910,
    "as_": 1911,
    "as_price</w>": 1912,
    "as_string</w>": 1913,
    "asa</w>": 1914,
    "asafe</w>": 1915,
    "asany": 1916,
    "asanyarray</w>": 1917,
    "asc": 1918,
    "asci": 1919,
    "ascii\"</w>": 1920,
    "ascii'</w>": 1921,
    "ascii</w>": 1922,
    "ascii_": 1923,
    "ascon": 1924,
    "ascontiguo": 1925,
    "ascontiguousarray</w>": 1926,
    "ascript</w>": 1927,
    "ase": 1928,
    "ase</w>": 1929,
    "ase_": 1930,
    "ased</w>": 1931,
    "ases</w>": 1932,
    "ash</w>": 1933,
    "ashes</w>": 1934,
    "asi": 1935,
    "asier</w>": 1936,
    "asily</w>": 1937,
    "asing</w>": 1938,
    "ask</w>": 1939,
    "asn": 1940,
    "asn1": 1941,
    "asn1crypto</w>": 1942,
    "ason": 1943,
    "ason</w>": 1944,
    "asons</w>": 1945,
    "asrec</w>": 1946,
    "asrn</w>": 1947,
    "ass</w>": 1948,
    "assem": 1949,
    "assemble</w>": 1950,
    "assembly</w>": 1951,
    "asser": 1952,
    "assert</w>": 1953,
    "assert_": 1954,
    "asses": 1955,
    "assessmen": 1956,
    "assessment</w>": 1957,
    "assessment_": 1958,
    "asset": 1959,
    "asset</w>": 1960,
    "asset_": 1961,
    "assets</w>": 1962,
    "assign": 1963,
    "assignmen": 1964,
    "assignment</w>": 1965,
    "assignment_": 1966,
    "assignments</w>": 1967,
    "assoc</w>": 1968,
    "associ": 1969,
    "associate</w>": 1970,
    "associated</w>": 1971,
    "association</w>": 1972,
    "associations</w>": 1973,
    "assume</w>": 1974,
    "assumed</w>": 1975,
    "assumes</w>": 1976,
    "assuming</w>": 1977,
    "assumption</w>": 1978,
    "ast": 1979,
    "ast</w>": 1980,
    "ast_": 1981,
    "astic</w>": 1982,
    "asticsearch</w>": 1983,
    "asure</w>": 1984,
    "asured</w>": 1985,
    "asuremen": 1986,
    "asurement</w>": 1987,
    "asurements</w>": 1988,
    "asures</w>": 1989,
    "asy</w>": 1990,
    "asyn": 1991,
    "async</w>": 1992,
    "async_": 1993,
    "async_req</w>": 1994,
    "asynchrono": 1995,
    "asynchronous</w>": 1996,
    "asynchronously</w>": 1997,
    "asyncio</w>": 1998,
    "at": 1999,
    "at'</w>": 2000,
    "at1</w>": 2001,
    "at</w>": 2002,
    "at_": 2003,
    "atar</w>": 2004,
    "ate": 2005,
    "ate</w>": 2006,
    "ate_": 2007,
    "ated</w>": 2008,
    "ated_": 2009,
    "atedlist</w>": 2010,
    "ately</w>": 2011,
    "aten": 2012,
    "atent</w>": 2013,
    "atent_": 2014,
    "ater</w>": 2015,
    "aternion</w>": 2016,
    "ates'</w>": 2017,
    "ates</w>": 2018,
    "atest</w>": 2019,
    "atest_": 2020,
    "atex</w>": 2021,
    "ath": 2022,
    "ather</w>": 2023,
    "ati": 2024,
    "ating</w>": 2025,
    "ation": 2026,
    "ation'</w>": 2027,
    "ation</w>": 2028,
    "ation_": 2029,
    "ational</w>": 2030,
    "ations'</w>": 2031,
    "ations</w>": 2032,
    "atitu": 2033,
    "ative</w>": 2034,
    "ative_": 2035,
    "atives</w>": 2036,
    "atle": 2037,
    "atleast_": 2038,
    "atleast_1d</w>": 2039,
    "atleast_2d</w>": 2040,
    "atmo": 2041,
    "ato": 2042,
    "atom</w>": 2043,
    "atom_": 2044,
    "atomi": 2045,
    "atomic</w>": 2046,
    "atoms</w>": 2047,
    "ator</w>": 2048,
    "ats</w>": 2049,
    "att": 2050,
    "attach": 2051,
    "attachment</w>": 2052,
    "attachments</w>": 2053,
    "attemp": 2054,
    "attempt</w>": 2055,
    "attempted</w>": 2056,
    "attempting</w>": 2057,
    "attempts</w>": 2058,
    "atten": 2059,
    "atten</w>": 2060,
    "attened</w>": 2061,
    "attention</w>": 2062,
    "attention_": 2063,
    "atter</w>": 2064,
    "attice</w>": 2065,
    "attn": 2066,
    "attr</w>": 2067,
    "attri": 2068,
    "attrib</w>": 2069,
    "attribs</w>": 2070,
    "attribute": 2071,
    "attribute</w>": 2072,
    "attributeerror</w>": 2073,
    "attributes\"</w>": 2074,
    "attributes</w>": 2075,
    "attrs</w>": 2076,
    "atural</w>": 2077,
    "ature'</w>": 2078,
    "ature</w>": 2079,
    "ature_": 2080,
    "atures</w>": 2081,
    "au": 2082,
    "audio": 2083,
    "audio</w>": 2084,
    "audio_": 2085,
    "audrate</w>": 2086,
    "aug": 2087,
    "aught</w>": 2088,
    "augmen": 2089,
    "augmented</w>": 2090,
    "aul": 2091,
    "aun": 2092,
    "ause</w>": 2093,
    "aused</w>": 2094,
    "auses</w>": 2095,
    "ausing</w>": 2096,
    "auth2": 2097,
    "auth2</w>": 2098,
    "auth</w>": 2099,
    "auth_": 2100,
    "auth_token</w>": 2101,
    "authen": 2102,
    "authenticate</w>": 2103,
    "authenticated</w>": 2104,
    "authentication": 2105,
    "authentication</w>": 2106,
    "authenticator</w>": 2107,
    "author\"</w>": 2108,
    "authori": 2109,
    "authoriz": 2110,
    "authorization": 2111,
    "authorization'</w>": 2112,
    "authorization_": 2113,
    "authorized</w>": 2114,
    "auti": 2115,
    "aution</w>": 2116,
    "auto": 2117,
    "auto</w>": 2118,
    "automatic</w>": 2119,
    "automatically</w>": 2120,
    "automation</w>": 2121,
    "aux": 2122,
    "auxili": 2123,
    "auxiliary</w>": 2124,
    "av": 2125,
    "avail": 2126,
    "availability</w>": 2127,
    "available\"</w>": 2128,
    "available</w>": 2129,
    "available_": 2130,
    "avatar</w>": 2131,
    "ave": 2132,
    "ave</w>": 2133,
    "ave_": 2134,
    "aves</w>": 2135,
    "avg</w>": 2136,
    "avg_": 2137,
    "avig": 2138,
    "aving</w>": 2139,
    "avo": 2140,
    "avoid</w>": 2141,
    "avor</w>": 2142,
    "avy</w>": 2143,
    "aw": 2144,
    "aw</w>": 2145,
    "await</w>": 2146,
    "aws</w>": 2147,
    "aws_": 2148,
    "aws_access_key_id</w>": 2149,
    "aws_secret_access_key</w>": 2150,
    "ax": 2151,
    "ax</w>": 2152,
    "axes</w>": 2153,
    "axes_": 2154,
    "axes`</w>": 2155,
    "axhline</w>": 2156,
    "axi": 2157,
    "axis'</w>": 2158,
    "axis</w>": 2159,
    "axis_": 2160,
    "axis`</w>": 2161,
    "axvline</w>": 2162,
    "ay": 2163,
    "ay</w>": 2164,
    "ayesi": 2165,
    "az": 2166,
    "az'</w>": 2167,
    "az</w>": 2168,
    "azimuth</w>": 2169,
    "azure</w>": 2170,
    "b": 2171,
    "b\"\"\"</w>": 2172,
    "b\"\"</w>": 2173,
    "b\"</w>": 2174,
    "b\"\\x": 2175,
    "b''</w>": 2176,
    "b'</w>": 2177,
    "b'\\n'</w>": 2178,
    "b'\\x": 2179,
    "b'\\x00'</w>": 2180,
    "b0</w>": 2181,
    "b1</w>": 2182,
    "b2": 2183,
    "b2</w>": 2184,
    "b3</w>": 2185,
    "b5": 2186,
    "b6": 2187,
    "b64": 2188,
    "b64decode</w>": 2189,
    "b64encode</w>": 2190,
    "b7": 2191,
    "b8": 2192,
    "b9": 2193,
    "b</w>": 2194,
    "b_": 2195,
    "ba</w>": 2196,
    "bac": 2197,
    "back": 2198,
    "back'</w>": 2199,
    "back</w>": 2200,
    "back_": 2201,
    "backgro": 2202,
    "background_": 2203,
    "backs</w>": 2204,
    "backslash</w>": 2205,
    "backup</w>": 2206,
    "backup_": 2207,
    "bad": 2208,
    "bad</w>": 2209,
    "bad_": 2210,
    "badge</w>": 2211,
    "bag</w>": 2212,
    "bail</w>": 2213,
    "bal": 2214,
    "balan": 2215,
    "balanced</w>": 2216,
    "balancer</w>": 2217,
    "bam'</w>": 2218,
    "bam</w>": 2219,
    "bam_file</w>": 2220,
    "bamfile</w>": 2221,
    "ban": 2222,
    "band": 2223,
    "bandpass</w>": 2224,
    "bank</w>": 2225,
    "bank_": 2226,
    "bar": 2227,
    "bar</w>": 2228,
    "barcode</w>": 2229,
    "base": 2230,
    "base64</w>": 2231,
    "base</w>": 2232,
    "base_": 2233,
    "base_class</w>": 2234,
    "base_dir</w>": 2235,
    "base_path</w>": 2236,
    "base_url</w>": 2237,
    "based</w>": 2238,
    "bash</w>": 2239,
    "basi": 2240,
    "basic</w>": 2241,
    "basic_": 2242,
    "basically</w>": 2243,
    "basicconfig</w>": 2244,
    "bat": 2245,
    "batch": 2246,
    "batch</w>": 2247,
    "batch_": 2248,
    "batch_shape</w>": 2249,
    "batch_size</w>": 2250,
    "batches</w>": 2251,
    "batchsize</w>": 2252,
    "baudrate</w>": 2253,
    "bayesi": 2254,
    "bayesian</w>": 2255,
    "baz</w>": 2256,
    "bb": 2257,
    "bb</w>": 2258,
    "bble</w>": 2259,
    "bbox</w>": 2260,
    "bc</w>": 2261,
    "bcc</w>": 2262,
    "bd": 2263,
    "be": 2264,
    "be</w>": 2265,
    "be_": 2266,
    "beacon</w>": 2267,
    "beam</w>": 2268,
    "beam_": 2269,
    "beam_size</w>": 2270,
    "beat</w>": 2271,
    "beauti": 2272,
    "beautiful": 2273,
    "beautifulsoup</w>": 2274,
    "bec": 2275,
    "because</w>": 2276,
    "bed": 2277,
    "bed</w>": 2278,
    "been</w>": 2279,
    "before</w>": 2280,
    "before_": 2281,
    "begin": 2282,
    "begin</w>": 2283,
    "beginning</w>": 2284,
    "behave</w>": 2285,
    "behaves</w>": 2286,
    "behavior</w>": 2287,
    "behaviour</w>": 2288,
    "behind</w>": 2289,
    "being</w>": 2290,
    "bel</w>": 2291,
    "bem": 2292,
    "bem</w>": 2293,
    "ben": 2294,
    "bench": 2295,
    "bench</w>": 2296,
    "ber": 2297,
    "ber'</w>": 2298,
    "ber</w>": 2299,
    "ber_": 2300,
    "bernetes</w>": 2301,
    "bers</w>": 2302,
    "bes</w>": 2303,
    "best</w>": 2304,
    "best_": 2305,
    "beta1</w>": 2306,
    "beta</w>": 2307,
    "better</w>": 2308,
    "betwe": 2309,
    "between</w>": 2310,
    "beyond</w>": 2311,
    "bezier</w>": 2312,
    "bf": 2313,
    "bf</w>": 2314,
    "bg": 2315,
    "bg</w>": 2316,
    "bh</w>": 2317,
    "bi": 2318,
    "bias</w>": 2319,
    "biases</w>": 2320,
    "bic</w>": 2321,
    "bidden</w>": 2322,
    "bien": 2323,
    "big": 2324,
    "bigfloat</w>": 2325,
    "bigger</w>": 2326,
    "bigquery</w>": 2327,
    "biguo": 2328,
    "bility</w>": 2329,
    "bin": 2330,
    "bin_": 2331,
    "bin_edges</w>": 2332,
    "binaries</w>": 2333,
    "binary": 2334,
    "binary</w>": 2335,
    "binary_": 2336,
    "binascii</w>": 2337,
    "bing</w>": 2338,
    "binsize</w>": 2339,
    "bit": 2340,
    "bit</w>": 2341,
    "bitmap</w>": 2342,
    "bitmask</w>": 2343,
    "bitrary</w>": 2344,
    "bits</w>": 2345,
    "bk": 2346,
    "bl": 2347,
    "bl</w>": 2348,
    "black": 2349,
    "black</w>": 2350,
    "blacklist</w>": 2351,
    "blan": 2352,
    "blank</w>": 2353,
    "blankline</w>": 2354,
    "blanks</w>": 2355,
    "ble'</w>": 2356,
    "ble</w>": 2357,
    "ble_": 2358,
    "blevector</w>": 2359,
    "bling</w>": 2360,
    "blings</w>": 2361,
    "blk</w>": 2362,
    "blob": 2363,
    "blobxfer</w>": 2364,
    "bloc": 2365,
    "block": 2366,
    "block</w>": 2367,
    "block_": 2368,
    "block_identifier</w>": 2369,
    "block_size</w>": 2370,
    "blockchain</w>": 2371,
    "blocksignals</w>": 2372,
    "blocksize</w>": 2373,
    "blue</w>": 2374,
    "blueprint</w>": 2375,
    "bly</w>": 2376,
    "bm</w>": 2377,
    "bn": 2378,
    "bo": 2379,
    "bo</w>": 2380,
    "board</w>": 2381,
    "bobject</w>": 2382,
    "bobox</w>": 2383,
    "bodies</w>": 2384,
    "body": 2385,
    "body</w>": 2386,
    "body_": 2387,
    "boke": 2388,
    "bokeh</w>": 2389,
    "bol": 2390,
    "bol</w>": 2391,
    "bol_": 2392,
    "boli": 2393,
    "bols</w>": 2394,
    "boo": 2395,
    "book": 2396,
    "book</w>": 2397,
    "bookmark</w>": 2398,
    "bool": 2399,
    "bool</w>": 2400,
    "bool`</w>": 2401,
    "bool``</w>": 2402,
    "boole": 2403,
    "boolean</w>": 2404,
    "booleans</w>": 2405,
    "boost</w>": 2406,
    "booster</w>": 2407,
    "boot</w>": 2408,
    "boot_": 2409,
    "bootstrap</w>": 2410,
    "bor</w>": 2411,
    "bors</w>": 2412,
    "bot</w>": 2413,
    "both</w>": 2414,
    "boto": 2415,
    "boto3</w>": 2416,
    "boto</w>": 2417,
    "botoservererror</w>": 2418,
    "bots</w>": 2419,
    "botto": 2420,
    "bottom</w>": 2421,
    "boun": 2422,
    "bound": 2423,
    "bound</w>": 2424,
    "bounds</w>": 2425,
    "bovy</w>": 2426,
    "box": 2427,
    "box</w>": 2428,
    "boxes</w>": 2429,
    "boxscore</w>": 2430,
    "bp</w>": 2431,
    "bp_": 2432,
    "bq": 2433,
    "bqm</w>": 2434,
    "br": 2435,
    "br</w>": 2436,
    "bracke": 2437,
    "brain_": 2438,
    "brain_or_object</w>": 2439,
    "bran": 2440,
    "branch": 2441,
    "branch</w>": 2442,
    "branch_": 2443,
    "branches</w>": 2444,
    "bre": 2445,
    "brea": 2446,
    "break": 2447,
    "break</w>": 2448,
    "breakpoint</w>": 2449,
    "brevi": 2450,
    "bri": 2451,
    "brid": 2452,
    "bridge</w>": 2453,
    "bright": 2454,
    "brightness</w>": 2455,
    "brl</w>": 2456,
    "bro": 2457,
    "broad": 2458,
    "broadc": 2459,
    "broadcast</w>": 2460,
    "broadcast_": 2461,
    "broc": 2462,
    "brocade</w>": 2463,
    "brow": 2464,
    "browser</w>": 2465,
    "bs</w>": 2466,
    "bson</w>": 2467,
    "bt": 2468,
    "bu": 2469,
    "bubble</w>": 2470,
    "bucke": 2471,
    "bucket_": 2472,
    "buckets</w>": 2473,
    "bud": 2474,
    "budget</w>": 2475,
    "buf</w>": 2476,
    "buff</w>": 2477,
    "buffer": 2478,
    "buffer</w>": 2479,
    "buffer_": 2480,
    "buffer_size</w>": 2481,
    "buffers</w>": 2482,
    "buffersize</w>": 2483,
    "bufsize</w>": 2484,
    "bug": 2485,
    "bug</w>": 2486,
    "bugs</w>": 2487,
    "bugz": 2488,
    "bugzilla</w>": 2489,
    "buil": 2490,
    "build</w>": 2491,
    "build_": 2492,
    "build_dir</w>": 2493,
    "builder</w>": 2494,
    "built</w>": 2495,
    "builtin</w>": 2496,
    "builtins</w>": 2497,
    "bul": 2498,
    "bulk</w>": 2499,
    "bulk_": 2500,
    "bum</w>": 2501,
    "bun": 2502,
    "bunch</w>": 2503,
    "bund": 2504,
    "bundle</w>": 2505,
    "bute": 2506,
    "bute</w>": 2507,
    "buted</w>": 2508,
    "butes</w>": 2509,
    "bution</w>": 2510,
    "butions</w>": 2511,
    "bv</w>": 2512,
    "bw": 2513,
    "bw</w>": 2514,
    "bx</w>": 2515,
    "by": 2516,
    "by</w>": 2517,
    "by_": 2518,
    "by_name</w>": 2519,
    "byname</w>": 2520,
    "byref</w>": 2521,
    "byte": 2522,
    "byteorder</w>": 2523,
    "bytes</w>": 2524,
    "bz": 2525,
    "c": 2526,
    "c\"</w>": 2527,
    "c'</w>": 2528,
    "c0</w>": 2529,
    "c1</w>": 2530,
    "c2": 2531,
    "c2</w>": 2532,
    "c3</w>": 2533,
    "c4": 2534,
    "c4</w>": 2535,
    "c6": 2536,
    "c7": 2537,
    "c8": 2538,
    "c9": 2539,
    "c</w>": 2540,
    "c_": 2541,
    "c_char_p</w>": 2542,
    "c_double</w>": 2543,
    "c_id</w>": 2544,
    "c_int</w>": 2545,
    "c_name</w>": 2546,
    "c_ref</w>": 2547,
    "c_uint32</w>": 2548,
    "c_void_p</w>": 2549,
    "c`</w>": 2550,
    "c``</w>": 2551,
    "ca'</w>": 2552,
    "ca</w>": 2553,
    "ca_": 2554,
    "cable</w>": 2555,
    "cache": 2556,
    "cache</w>": 2557,
    "cache_": 2558,
    "cache_dir</w>": 2559,
    "cache_key</w>": 2560,
    "cached</w>": 2561,
    "cached_": 2562,
    "caching</w>": 2563,
    "cadence</w>": 2564,
    "cairo</w>": 2565,
    "cal": 2566,
    "cal</w>": 2567,
    "cal_": 2568,
    "calc</w>": 2569,
    "calc_": 2570,
    "calcul": 2571,
    "calculate</w>": 2572,
    "calculate_": 2573,
    "calculated</w>": 2574,
    "calculates</w>": 2575,
    "calculating</w>": 2576,
    "calculation</w>": 2577,
    "calculations</w>": 2578,
    "calib": 2579,
    "calibration</w>": 2580,
    "call": 2581,
    "call</w>": 2582,
    "call_": 2583,
    "call__</w>": 2584,
    "callable</w>": 2585,
    "callables</w>": 2586,
    "callback": 2587,
    "callback</w>": 2588,
    "callback_": 2589,
    "callback`</w>": 2590,
    "callbacks</w>": 2591,
    "called": 2592,
    "calledprocesserror</w>": 2593,
    "callpoint'</w>": 2594,
    "calls</w>": 2595,
    "callsign</w>": 2596,
    "cally</w>": 2597,
    "cam</w>": 2598,
    "came</w>": 2599,
    "camel": 2600,
    "camera</w>": 2601,
    "camera_": 2602,
    "campaign</w>": 2603,
    "campaign_id</w>": 2604,
    "can": 2605,
    "can't</w>": 2606,
    "can</w>": 2607,
    "cancel</w>": 2608,
    "cancel_": 2609,
    "canceled</w>": 2610,
    "cancelled</w>": 2611,
    "cancellederror</w>": 2612,
    "cannot</w>": 2613,
    "canoni": 2614,
    "canonical</w>": 2615,
    "canonical_": 2616,
    "cant</w>": 2617,
    "canv": 2618,
    "canvas</w>": 2619,
    "cap": 2620,
    "cap</w>": 2621,
    "capt": 2622,
    "caption</w>": 2623,
    "capture</w>": 2624,
    "captured</w>": 2625,
    "car": 2626,
    "card</w>": 2627,
    "cardin": 2628,
    "cardinality</w>": 2629,
    "cards</w>": 2630,
    "cartesi": 2631,
    "cartesian</w>": 2632,
    "cas": 2633,
    "cas</w>": 2634,
    "casc": 2635,
    "cascade</w>": 2636,
    "case</w>": 2637,
    "case_": 2638,
    "case_obj</w>": 2639,
    "case_sensitive</w>": 2640,
    "cases</w>": 2641,
    "casrn</w>": 2642,
    "cast</w>": 2643,
    "cast_": 2644,
    "cat": 2645,
    "cat</w>": 2646,
    "cat_": 2647,
    "catalog_session</w>": 2648,
    "catch</w>": 2649,
    "catch_": 2650,
    "catchment</w>": 2651,
    "cate": 2652,
    "cate</w>": 2653,
    "cate_": 2654,
    "cated</w>": 2655,
    "categor": 2656,
    "categori": 2657,
    "categorical</w>": 2658,
    "categories</w>": 2659,
    "category": 2660,
    "category</w>": 2661,
    "category_": 2662,
    "caten": 2663,
    "cates</w>": 2664,
    "cation": 2665,
    "cation</w>": 2666,
    "cation_": 2667,
    "cations</w>": 2668,
    "caught</w>": 2669,
    "cause</w>": 2670,
    "caused</w>": 2671,
    "causes</w>": 2672,
    "causing</w>": 2673,
    "caution</w>": 2674,
    "cave": 2675,
    "caveat</w>": 2676,
    "cb": 2677,
    "cb</w>": 2678,
    "cbc</w>": 2679,
    "cbi</w>": 2680,
    "cc": 2681,
    "cc</w>": 2682,
    "cclient</w>": 2683,
    "cconfig</w>": 2684,
    "ccos</w>": 2685,
    "cd": 2686,
    "cd</w>": 2687,
    "cdel": 2688,
    "cdelt": 2689,
    "cdf": 2690,
    "cdf</w>": 2691,
    "cdict</w>": 2692,
    "cdir</w>": 2693,
    "cdlibexception</w>": 2694,
    "cdlibinternalerror</w>": 2695,
    "cdlibinvalidinput</w>": 2696,
    "cdot</w>": 2697,
    "cdr": 2698,
    "cdr3_": 2699,
    "ce": 2700,
    "ce\"</w>": 2701,
    "ce'</w>": 2702,
    "ce</w>": 2703,
    "ce_": 2704,
    "ce_db</w>": 2705,
    "ce`</w>": 2706,
    "ce``</w>": 2707,
    "ced</w>": 2708,
    "ceil</w>": 2709,
    "cel": 2710,
    "cel</w>": 2711,
    "cel_": 2712,
    "celed</w>": 2713,
    "cell": 2714,
    "cell</w>": 2715,
    "cell_": 2716,
    "celled</w>": 2717,
    "cellederror</w>": 2718,
    "cells</w>": 2719,
    "cen": 2720,
    "censored</w>": 2721,
    "census</w>": 2722,
    "center": 2723,
    "center</w>": 2724,
    "center_": 2725,
    "centered</w>": 2726,
    "centers</w>": 2727,
    "central</w>": 2728,
    "centre</w>": 2729,
    "centro": 2730,
    "centroids</w>": 2731,
    "cep": 2732,
    "cept</w>": 2733,
    "cepts</w>": 2734,
    "cer": 2735,
    "cer</w>": 2736,
    "cern</w>": 2737,
    "cert_": 2738,
    "certain</w>": 2739,
    "certainties</w>": 2740,
    "certainty</w>": 2741,
    "certifi": 2742,
    "certificate</w>": 2743,
    "certificate_": 2744,
    "certificates</w>": 2745,
    "ces": 2746,
    "ces</w>": 2747,
    "cestor</w>": 2748,
    "cestors</w>": 2749,
    "cex</w>": 2750,
    "cf": 2751,
    "cf</w>": 2752,
    "cfg": 2753,
    "cfg</w>": 2754,
    "cfg_": 2755,
    "cformat</w>": 2756,
    "cfromtimestamp</w>": 2757,
    "cg": 2758,
    "ch": 2759,
    "ch'</w>": 2760,
    "ch</w>": 2761,
    "ch_": 2762,
    "cha": 2763,
    "chain</w>": 2764,
    "chall</w>": 2765,
    "chan": 2766,
    "chan</w>": 2767,
    "change</w>": 2768,
    "changed</w>": 2769,
    "changes</w>": 2770,
    "channel": 2771,
    "channel</w>": 2772,
    "channel_": 2773,
    "channel_identifier</w>": 2774,
    "channels</w>": 2775,
    "chao": 2776,
    "chaospy</w>": 2777,
    "char": 2778,
    "char</w>": 2779,
    "char_": 2780,
    "char_p</w>": 2781,
    "charset</w>": 2782,
    "chec": 2783,
    "check": 2784,
    "check</w>": 2785,
    "check_": 2786,
    "check_call</w>": 2787,
    "check_output</w>": 2788,
    "checkbox</w>": 2789,
    "checkplot": 2790,
    "checkplotdict</w>": 2791,
    "checkpoint</w>": 2792,
    "checksum</w>": 2793,
    "checksums</w>": 2794,
    "ched</w>": 2795,
    "chemi": 2796,
    "chemical</w>": 2797,
    "chemy</w>": 2798,
    "chen</w>": 2799,
    "cher</w>": 2800,
    "cherr": 2801,
    "cherrypy</w>": 2802,
    "ches</w>": 2803,
    "chi": 2804,
    "chil": 2805,
    "child": 2806,
    "child</w>": 2807,
    "children</w>": 2808,
    "ching</w>": 2809,
    "chk": 2810,
    "chk</w>": 2811,
    "chment</w>": 2812,
    "chmod</w>": 2813,
    "cho": 2814,
    "choi": 2815,
    "choice</w>": 2816,
    "choice_": 2817,
    "choices</w>": 2818,
    "chone</w>": 2819,
    "choo": 2820,
    "choose</w>": 2821,
    "choosing</w>": 2822,
    "chor": 2823,
    "chor</w>": 2824,
    "chors</w>": 2825,
    "chosen</w>": 2826,
    "chosen_": 2827,
    "chr</w>": 2828,
    "chr_": 2829,
    "chro": 2830,
    "chrom</w>": 2831,
    "chroma</w>": 2832,
    "chrome</w>": 2833,
    "chromo": 2834,
    "chromosome</w>": 2835,
    "chromosomes</w>": 2836,
    "chroni": 2837,
    "chrono": 2838,
    "chun": 2839,
    "chunk": 2840,
    "chunk</w>": 2841,
    "chunk_": 2842,
    "chunk_size</w>": 2843,
    "chunks</w>": 2844,
    "chunksize</w>": 2845,
    "chy": 2846,
    "chy</w>": 2847,
    "ci": 2848,
    "cident</w>": 2849,
    "cien": 2850,
    "cies</w>": 2851,
    "cig": 2852,
    "cigar</w>": 2853,
    "cing</w>": 2854,
    "cio</w>": 2855,
    "cipal</w>": 2856,
    "cir": 2857,
    "circle</w>": 2858,
    "circles</w>": 2859,
    "circu": 2860,
    "circuit</w>": 2861,
    "circul": 2862,
    "circular</w>": 2863,
    "cise</w>": 2864,
    "cit</w>": 2865,
    "citly</w>": 2866,
    "city</w>": 2867,
    "cj": 2868,
    "ck": 2869,
    "ck</w>": 2870,
    "cked</w>": 2871,
    "cl": 2872,
    "cl</w>": 2873,
    "claim</w>": 2874,
    "claims</w>": 2875,
    "clas": 2876,
    "class\"</w>": 2877,
    "class'</w>": 2878,
    "class</w>": 2879,
    "class_": 2880,
    "class__</w>": 2881,
    "class_name</w>": 2882,
    "classes</w>": 2883,
    "classi": 2884,
    "classifi": 2885,
    "classification</w>": 2886,
    "classifier</w>": 2887,
    "classmethod</w>": 2888,
    "classname</w>": 2889,
    "classpath</w>": 2890,
    "classtype</w>": 2891,
    "clause</w>": 2892,
    "clauses</w>": 2893,
    "cle": 2894,
    "cle</w>": 2895,
    "cle_": 2896,
    "clean": 2897,
    "clean</w>": 2898,
    "clean_": 2899,
    "cleanup</w>": 2900,
    "cles</w>": 2901,
    "clf</w>": 2902,
    "cli": 2903,
    "clic</w>": 2904,
    "click</w>": 2905,
    "clicked</w>": 2906,
    "clien": 2907,
    "client": 2908,
    "client</w>": 2909,
    "client_": 2910,
    "client_info</w>": 2911,
    "client_secret</w>": 2912,
    "clientraw": 2913,
    "clientrawresponse</w>": 2914,
    "clination</w>": 2915,
    "clip</w>": 2916,
    "clique</w>": 2917,
    "clo": 2918,
    "close</w>": 2919,
    "close_": 2920,
    "closed</w>": 2921,
    "closing</w>": 2922,
    "clou": 2923,
    "cloud": 2924,
    "cloud</w>": 2925,
    "cloud_": 2926,
    "cloud_config_value</w>": 2927,
    "cloudsystemexit</w>": 2928,
    "cls</w>": 2929,
    "cls_": 2930,
    "clsname</w>": 2931,
    "clss</w>": 2932,
    "clu": 2933,
    "cluster": 2934,
    "cluster</w>": 2935,
    "cluster_": 2936,
    "clustering</w>": 2937,
    "clusters</w>": 2938,
    "cm": 2939,
    "cm</w>": 2940,
    "cmc</w>": 2941,
    "cmd</w>": 2942,
    "cn": 2943,
    "cname</w>": 2944,
    "cnf</w>": 2945,
    "cnow</w>": 2946,
    "cnt</w>": 2947,
    "cntxt</w>": 2948,
    "co": 2949,
    "coalesce</w>": 2950,
    "coar": 2951,
    "coarse</w>": 2952,
    "cod</w>": 2953,
    "code": 2954,
    "code'</w>": 2955,
    "code</w>": 2956,
    "code_": 2957,
    "code__</w>": 2958,
    "code_array</w>": 2959,
    "code`</w>": 2960,
    "codes'</w>": 2961,
    "codes</w>": 2962,
    "coding</w>": 2963,
    "codon</w>": 2964,
    "codons</w>": 2965,
    "coe": 2966,
    "coeff</w>": 2967,
    "coeff_": 2968,
    "coeffici": 2969,
    "coefficient</w>": 2970,
    "coefficients</w>": 2971,
    "coeffs</w>": 2972,
    "coefs</w>": 2973,
    "coer": 2974,
    "coerce</w>": 2975,
    "coerced</w>": 2976,
    "cohort</w>": 2977,
    "coin": 2978,
    "coin_": 2979,
    "coin_symbol</w>": 2980,
    "col": 2981,
    "col</w>": 2982,
    "coll": 2983,
    "collap": 2984,
    "collec": 2985,
    "collection</w>": 2986,
    "colname</w>": 2987,
    "colnames</w>": 2988,
    "colo": 2989,
    "color": 2990,
    "color</w>": 2991,
    "colorbar</w>": 2992,
    "colori": 2993,
    "colorize</w>": 2994,
    "colorspace</w>": 2995,
    "colours</w>": 2996,
    "cols</w>": 2997,
    "coltype</w>": 2998,
    "colum": 2999,
    "column": 3000,
    "column</w>": 3001,
    "column_": 3002,
    "column_stack</w>": 3003,
    "columns</w>": 3004,
    "com": 3005,
    "combin": 3006,
    "combination</w>": 3007,
    "combinations</w>": 3008,
    "combo</w>": 3009,
    "combobox</w>": 3010,
    "come</w>": 3011,
    "comes</w>": 3012,
    "coming</w>": 3013,
    "comma</w>": 3014,
    "command": 3015,
    "command</w>": 3016,
    "command_": 3017,
    "command_string</w>": 3018,
    "commands</w>": 3019,
    "commen": 3020,
    "comment</w>": 3021,
    "commented</w>": 3022,
    "comments</w>": 3023,
    "commit</w>": 3024,
    "common'</w>": 3025,
    "common</w>": 3026,
    "common_": 3027,
    "communi": 3028,
    "communicate</w>": 3029,
    "communication</w>": 3030,
    "compart": 3031,
    "compartment</w>": 3032,
    "compati": 3033,
    "compatibility</w>": 3034,
    "compatible</w>": 3035,
    "comple": 3036,
    "complete</w>": 3037,
    "complete_": 3038,
    "completed</w>": 3039,
    "completely</w>": 3040,
    "completion</w>": 3041,
    "compli": 3042,
    "compliance</w>": 3043,
    "compliant</w>": 3044,
    "compo": 3045,
    "componen": 3046,
    "component</w>": 3047,
    "components</w>": 3048,
    "compose</w>": 3049,
    "composer</w>": 3050,
    "composite</w>": 3051,
    "compound</w>": 3052,
    "compounds</w>": 3053,
    "compre": 3054,
    "comprehen": 3055,
    "compres": 3056,
    "compressed</w>": 3057,
    "compute</w>": 3058,
    "compute_": 3059,
    "con": 3060,
    "con</w>": 3061,
    "concat</w>": 3062,
    "concat_": 3063,
    "concaten": 3064,
    "concatenate</w>": 3065,
    "concatenated</w>": 3066,
    "concen": 3067,
    "concentration</w>": 3068,
    "concept</w>": 3069,
    "concepts</w>": 3070,
    "concordance</w>": 3071,
    "concrete</w>": 3072,
    "concurrency</w>": 3073,
    "concurrent</w>": 3074,
    "condition": 3075,
    "conditional</w>": 3076,
    "conditionally</w>": 3077,
    "conf": 3078,
    "conf</w>": 3079,
    "conf_": 3080,
    "confi": 3081,
    "config": 3082,
    "config\"</w>": 3083,
    "config</w>": 3084,
    "config_": 3085,
    "config_dir</w>": 3086,
    "config_file</w>": 3087,
    "config_path</w>": 3088,
    "config_utils</w>": 3089,
    "config`</w>": 3090,
    "configuration</w>": 3091,
    "configured</w>": 3092,
    "confli": 3093,
    "conflict</w>": 3094,
    "conflicts</w>": 3095,
    "conj</w>": 3096,
    "conju": 3097,
    "conjugate</w>": 3098,
    "conjun": 3099,
    "conjunction</w>": 3100,
    "conn</w>": 3101,
    "conn_": 3102,
    "connec": 3103,
    "connecti": 3104,
    "connection": 3105,
    "connection</w>": 3106,
    "connection_": 3107,
    "connection_auth</w>": 3108,
    "connection`</w>": 3109,
    "connectivity</w>": 3110,
    "cons</w>": 3111,
    "consecuti": 3112,
    "consecutive</w>": 3113,
    "consen": 3114,
    "consensus</w>": 3115,
    "conser": 3116,
    "consider</w>": 3117,
    "considered</w>": 3118,
    "considering</w>": 3119,
    "consist</w>": 3120,
    "consisten": 3121,
    "consistency</w>": 3122,
    "consistent</w>": 3123,
    "consisting</w>": 3124,
    "consists</w>": 3125,
    "console</w>": 3126,
    "const</w>": 3127,
    "constan": 3128,
    "constants</w>": 3129,
    "constrain</w>": 3130,
    "constrained</w>": 3131,
    "constraint</w>": 3132,
    "constraints</w>": 3133,
    "construct</w>": 3134,
    "construct_": 3135,
    "constructed</w>": 3136,
    "constructing</w>": 3137,
    "construction</w>": 3138,
    "constructor</w>": 3139,
    "constructs</w>": 3140,
    "consts</w>": 3141,
    "consul": 3142,
    "consul_url</w>": 3143,
    "consume</w>": 3144,
    "consumed</w>": 3145,
    "consumer</w>": 3146,
    "consumer_": 3147,
    "consumers</w>": 3148,
    "consuming</w>": 3149,
    "consumption</w>": 3150,
    "conta": 3151,
    "contain</w>": 3152,
    "container</w>": 3153,
    "containing</w>": 3154,
    "contains</w>": 3155,
    "conten": 3156,
    "content": 3157,
    "content</w>": 3158,
    "content_": 3159,
    "content_type</w>": 3160,
    "contents</w>": 3161,
    "contenttype</w>": 3162,
    "context": 3163,
    "context</w>": 3164,
    "context_": 3165,
    "contig</w>": 3166,
    "contigs</w>": 3167,
    "contiguous</w>": 3168,
    "contin": 3169,
    "continu": 3170,
    "continuation</w>": 3171,
    "continue</w>": 3172,
    "continuo": 3173,
    "continuous</w>": 3174,
    "conto": 3175,
    "contours</w>": 3176,
    "contract</w>": 3177,
    "contract_": 3178,
    "contracts</w>": 3179,
    "contrast</w>": 3180,
    "contri": 3181,
    "contrib</w>": 3182,
    "contribution</w>": 3183,
    "control": 3184,
    "control_": 3185,
    "control_dependencies</w>": 3186,
    "controller</w>": 3187,
    "conv": 3188,
    "conven": 3189,
    "convention</w>": 3190,
    "conventions</w>": 3191,
    "conver": 3192,
    "conversation</w>": 3193,
    "conversations</w>": 3194,
    "convert</w>": 3195,
    "convert_": 3196,
    "convert_to_": 3197,
    "convert_to_tensor</w>": 3198,
    "converted</w>": 3199,
    "converter</w>": 3200,
    "converts</w>": 3201,
    "convol": 3202,
    "convolution</w>": 3203,
    "convolve</w>": 3204,
    "cooki": 3205,
    "cookie": 3206,
    "cookie</w>": 3207,
    "cookiejar</w>": 3208,
    "cookies</w>": 3209,
    "coor": 3210,
    "coord</w>": 3211,
    "coordin": 3212,
    "coordinate</w>": 3213,
    "coordinates</w>": 3214,
    "coordinator</w>": 3215,
    "coords</w>": 3216,
    "copg2</w>": 3217,
    "copi": 3218,
    "copied</w>": 3219,
    "copy": 3220,
    "copy</w>": 3221,
    "copyfile</w>": 3222,
    "copyright</w>": 3223,
    "copytree</w>": 3224,
    "cor": 3225,
    "cordance</w>": 3226,
    "cording</w>": 3227,
    "core</w>": 3228,
    "cores</w>": 3229,
    "corr": 3230,
    "corr</w>": 3231,
    "correct</w>": 3232,
    "correction</w>": 3233,
    "correctly</w>": 3234,
    "correlation</w>": 3235,
    "correspond</w>": 3236,
    "corresponding</w>": 3237,
    "corresponds</w>": 3238,
    "corrscan</w>": 3239,
    "cosine</w>": 3240,
    "cosmology</w>": 3241,
    "cost</w>": 3242,
    "cost_": 3243,
    "costs</w>": 3244,
    "could</w>": 3245,
    "couldn't</w>": 3246,
    "coun": 3247,
    "count": 3248,
    "count\"</w>": 3249,
    "count'</w>": 3250,
    "count</w>": 3251,
    "count_": 3252,
    "counter": 3253,
    "counter</w>": 3254,
    "counters</w>": 3255,
    "country</w>": 3256,
    "country_": 3257,
    "country_code</w>": 3258,
    "counts</w>": 3259,
    "counts_": 3260,
    "coupling</w>": 3261,
    "coupon</w>": 3262,
    "cour": 3263,
    "course</w>": 3264,
    "course_": 3265,
    "courseid</w>": 3266,
    "courses</w>": 3267,
    "cov</w>": 3268,
    "cov_": 3269,
    "covar</w>": 3270,
    "covari": 3271,
    "covarian": 3272,
    "covariance</w>": 3273,
    "covariates</w>": 3274,
    "covs</w>": 3275,
    "cp": 3276,
    "cp'</w>": 3277,
    "cp</w>": 3278,
    "cp_": 3279,
    "cparams</w>": 3280,
    "cpu_": 3281,
    "cpu_count</w>": 3282,
    "cpus</w>": 3283,
    "cq": 3284,
    "cr": 3285,
    "cr</w>": 3286,
    "craw": 3287,
    "crawl</w>": 3288,
    "crawler</w>": 3289,
    "crc": 3290,
    "crc32</w>": 3291,
    "cre": 3292,
    "create": 3293,
    "create</w>": 3294,
    "create_": 3295,
    "create_dataset</w>": 3296,
    "create_string_buffer</w>": 3297,
    "created</w>": 3298,
    "created_": 3299,
    "created_at</w>": 3300,
    "creates</w>": 3301,
    "creating</w>": 3302,
    "creation</w>": 3303,
    "creation_": 3304,
    "creator</w>": 3305,
    "creden": 3306,
    "credenti": 3307,
    "credential": 3308,
    "credentials</w>": 3309,
    "crete</w>": 3310,
    "criteri": 3311,
    "criteria</w>": 3312,
    "cro": 3313,
    "cros": 3314,
    "cross</w>": 3315,
    "cry": 3316,
    "cryp": 3317,
    "crypto</w>": 3318,
    "crypto_": 3319,
    "cs": 3320,
    "cs</w>": 3321,
    "cs_": 3322,
    "csec</w>": 3323,
    "csr_": 3324,
    "csr_matrix</w>": 3325,
    "csv": 3326,
    "csv</w>": 3327,
    "csvfile</w>": 3328,
    "ct": 3329,
    "ct</w>": 3330,
    "ct_": 3331,
    "ctan2</w>": 3332,
    "ctan</w>": 3333,
    "cted": 3334,
    "cted</w>": 3335,
    "ction</w>": 3336,
    "ctly</w>": 3337,
    "ctr": 3338,
    "ctrl": 3339,
    "ctrl</w>": 3340,
    "ctrlpts</w>": 3341,
    "cts</w>": 3342,
    "ctu": 3343,
    "ctx</w>": 3344,
    "cu": 3345,
    "cube</w>": 3346,
    "cubes</w>": 3347,
    "cubic</w>": 3348,
    "cubl": 3349,
    "cul": 3350,
    "cumul": 3351,
    "cumulative</w>": 3352,
    "cur": 3353,
    "curacy</w>": 3354,
    "curl</w>": 3355,
    "curr_": 3356,
    "curren": 3357,
    "currency</w>": 3358,
    "current": 3359,
    "current</w>": 3360,
    "current_": 3361,
    "current_app</w>": 3362,
    "current_dir</w>": 3363,
    "current_page</w>": 3364,
    "current_time</w>": 3365,
    "current_user</w>": 3366,
    "currentindex</w>": 3367,
    "currently</w>": 3368,
    "curse_add_line</w>": 3369,
    "curses</w>": 3370,
    "cursor": 3371,
    "cursor</w>": 3372,
    "cursor_": 3373,
    "cursor_position</w>": 3374,
    "curv": 3375,
    "curvature</w>": 3376,
    "curve</w>": 3377,
    "curves</w>": 3378,
    "custo": 3379,
    "custom": 3380,
    "custom</w>": 3381,
    "custom_": 3382,
    "custom_headers</w>": 3383,
    "customer</w>": 3384,
    "customi": 3385,
    "customize</w>": 3386,
    "customized</w>": 3387,
    "cut</w>": 3388,
    "cuts</w>": 3389,
    "cv": 3390,
    "cv</w>": 3391,
    "cvi</w>": 3392,
    "cw": 3393,
    "cwd</w>": 3394,
    "cwl</w>": 3395,
    "cx": 3396,
    "cx</w>": 3397,
    "cy": 3398,
    "cy</w>": 3399,
    "cy_": 3400,
    "cyan</w>": 3401,
    "cycle</w>": 3402,
    "cycle_": 3403,
    "cycles</w>": 3404,
    "cyclic</w>": 3405,
    "cylinder</w>": 3406,
    "cylindrical</w>": 3407,
    "cython</w>": 3408,
    "cyto": 3409,
    "cz</w>": 3410,
    "d": 3411,
    "d\"</w>": 3412,
    "d'</w>": 3413,
    "d0</w>": 3414,
    "d1</w>": 3415,
    "d1_": 3416,
    "d2": 3417,
    "d2</w>": 3418,
    "d3</w>": 3419,
    "d8": 3420,
    "d</w>": 3421,
    "d_": 3422,
    "d`</w>": 3423,
    "da": 3424,
    "daemon</w>": 3425,
    "dal</w>": 3426,
    "dar": 3427,
    "dark</w>": 3428,
    "dash": 3429,
    "dashbo": 3430,
    "dashboard</w>": 3431,
    "dat": 3432,
    "data": 3433,
    "data\"\"\"</w>": 3434,
    "data</w>": 3435,
    "data_": 3436,
    "data_dir</w>": 3437,
    "data_item</w>": 3438,
    "data_path</w>": 3439,
    "data_shape</w>": 3440,
    "data_size</w>": 3441,
    "data_source</w>": 3442,
    "data_store</w>": 3443,
    "data_type</w>": 3444,
    "data_type_": 3445,
    "data`</w>": 3446,
    "dataframe": 3447,
    "dataframe`</w>": 3448,
    "dataset</w>": 3449,
    "date": 3450,
    "date</w>": 3451,
    "date_": 3452,
    "date_format</w>": 3453,
    "date_str</w>": 3454,
    "date_string</w>": 3455,
    "date_time</w>": 3456,
    "dated</w>": 3457,
    "datefmt</w>": 3458,
    "dates</w>": 3459,
    "datetime": 3460,
    "datetime64</w>": 3461,
    "datetime</w>": 3462,
    "datetime`</w>": 3463,
    "dateutil</w>": 3464,
    "day": 3465,
    "day</w>": 3466,
    "days</w>": 3467,
    "db": 3468,
    "db</w>": 3469,
    "dbconn</w>": 3470,
    "dbsession</w>": 3471,
    "dbsexception": 3472,
    "dbsexceptionhandler</w>": 3473,
    "dc</w>": 3474,
    "dc_": 3475,
    "dcm</w>": 3476,
    "dcn": 3477,
    "dct</w>": 3478,
    "dd": 3479,
    "dd</w>": 3480,
    "de": 3481,
    "de</w>": 3482,
    "de_": 3483,
    "deactivate</w>": 3484,
    "dead</w>": 3485,
    "deadline</w>": 3486,
    "deal</w>": 3487,
    "dealing</w>": 3488,
    "debi": 3489,
    "debian</w>": 3490,
    "debu": 3491,
    "debug": 3492,
    "debug</w>": 3493,
    "debugger</w>": 3494,
    "debugging</w>": 3495,
    "dec": 3496,
    "decay</w>": 3497,
    "decl": 3498,
    "declaration</w>": 3499,
    "declarations</w>": 3500,
    "declare</w>": 3501,
    "declared</w>": 3502,
    "deco": 3503,
    "decode</w>": 3504,
    "decoding</w>": 3505,
    "decre": 3506,
    "decrease</w>": 3507,
    "decreasing</w>": 3508,
    "ded</w>": 3509,
    "deep": 3510,
    "deepcopy</w>": 3511,
    "def": 3512,
    "def</w>": 3513,
    "def_": 3514,
    "defaul": 3515,
    "default": 3516,
    "default</w>": 3517,
    "default_": 3518,
    "default_flow_": 3519,
    "default_flow_style</w>": 3520,
    "default_timeout</w>": 3521,
    "default_value</w>": 3522,
    "defaultdict</w>": 3523,
    "defaults</w>": 3524,
    "defer</w>": 3525,
    "deferred</w>": 3526,
    "define</w>": 3527,
    "defined</w>": 3528,
    "defines</w>": 3529,
    "defining</w>": 3530,
    "defining_": 3531,
    "defining_module</w>": 3532,
    "definition</w>": 3533,
    "definition_": 3534,
    "definitions</w>": 3535,
    "defs</w>": 3536,
    "deg": 3537,
    "deg2": 3538,
    "deg2rad</w>": 3539,
    "deg</w>": 3540,
    "degre": 3541,
    "degree</w>": 3542,
    "degrees</w>": 3543,
    "del": 3544,
    "dele": 3545,
    "delete": 3546,
    "delete</w>": 3547,
    "delete_": 3548,
    "deleted</w>": 3549,
    "deletes</w>": 3550,
    "deleting</w>": 3551,
    "deletion</w>": 3552,
    "deli": 3553,
    "deliver": 3554,
    "delivery_": 3555,
    "delta</w>": 3556,
    "delta_": 3557,
    "delta_t</w>": 3558,
    "deltas</w>": 3559,
    "den": 3560,
    "den</w>": 3561,
    "den_": 3562,
    "deno": 3563,
    "denom</w>": 3564,
    "denominator</w>": 3565,
    "dense</w>": 3566,
    "densities</w>": 3567,
    "density</w>": 3568,
    "density_": 3569,
    "dent</w>": 3570,
    "dep": 3571,
    "dependen": 3572,
    "dependencies</w>": 3573,
    "dependency</w>": 3574,
    "deplo": 3575,
    "deploy": 3576,
    "deploymen": 3577,
    "deployment</w>": 3578,
    "deprecation": 3579,
    "deprecationwarning</w>": 3580,
    "depth</w>": 3581,
    "depth_": 3582,
    "depths</w>": 3583,
    "der</w>": 3584,
    "deri": 3585,
    "deriv": 3586,
    "derivation</w>": 3587,
    "derivative</w>": 3588,
    "derivatives</w>": 3589,
    "derr</w>": 3590,
    "des</w>": 3591,
    "desc</w>": 3592,
    "descri": 3593,
    "describe</w>": 3594,
    "describe_": 3595,
    "described</w>": 3596,
    "describes</w>": 3597,
    "describing</w>": 3598,
    "descrip": 3599,
    "description'</w>": 3600,
    "description</w>": 3601,
    "descriptions</w>": 3602,
    "descriptor</w>": 3603,
    "descriptors</w>": 3604,
    "deserialize</w>": 3605,
    "desi": 3606,
    "design": 3607,
    "designated</w>": 3608,
    "desired</w>": 3609,
    "desk": 3610,
    "desktop</w>": 3611,
    "dest</w>": 3612,
    "dest_": 3613,
    "dest_dir</w>": 3614,
    "destin": 3615,
    "destination</w>": 3616,
    "destination_": 3617,
    "destro": 3618,
    "destroy</w>": 3619,
    "destroyed</w>": 3620,
    "detail": 3621,
    "detail</w>": 3622,
    "details'</w>": 3623,
    "details</w>": 3624,
    "detect</w>": 3625,
    "detect_": 3626,
    "detected</w>": 3627,
    "detection</w>": 3628,
    "detections</w>": 3629,
    "detector</w>": 3630,
    "deter": 3631,
    "detic</w>": 3632,
    "dev": 3633,
    "devi": 3634,
    "deviation</w>": 3635,
    "deviations</w>": 3636,
    "device": 3637,
    "device</w>": 3638,
    "device_": 3639,
    "devices</w>": 3640,
    "devnull</w>": 3641,
    "dex": 3642,
    "dex</w>": 3643,
    "df": 3644,
    "df</w>": 3645,
    "df_": 3646,
    "dfvfs</w>": 3647,
    "dg": 3648,
    "dg</w>": 3649,
    "dh": 3650,
    "dhcp</w>": 3651,
    "di": 3652,
    "diag</w>": 3653,
    "diagno": 3654,
    "diagnostic</w>": 3655,
    "diagnostics</w>": 3656,
    "diagon": 3657,
    "diagonal</w>": 3658,
    "diagram</w>": 3659,
    "dialect</w>": 3660,
    "dialog": 3661,
    "dialog</w>": 3662,
    "diame": 3663,
    "diameter</w>": 3664,
    "dic": 3665,
    "dic</w>": 3666,
    "dically</w>": 3667,
    "diccn": 3668,
    "diccnfg</w>": 3669,
    "dict</w>": 3670,
    "dict__</w>": 3671,
    "dict`</w>": 3672,
    "diction": 3673,
    "dictionaries</w>": 3674,
    "dictionary": 3675,
    "dictionary</w>": 3676,
    "dictitem</w>": 3677,
    "didn": 3678,
    "didn't</w>": 3679,
    "dies</w>": 3680,
    "diff</w>": 3681,
    "diff_": 3682,
    "differ</w>": 3683,
    "differen": 3684,
    "difference</w>": 3685,
    "differences</w>": 3686,
    "different</w>": 3687,
    "differenti": 3688,
    "differently</w>": 3689,
    "diffs</w>": 3690,
    "diffu": 3691,
    "dige": 3692,
    "digest</w>": 3693,
    "dihedral</w>": 3694,
    "dim</w>": 3695,
    "dimen": 3696,
    "dimension": 3697,
    "dimension</w>": 3698,
    "dimensional</w>": 3699,
    "dimensionality</w>": 3700,
    "dimensions</w>": 3701,
    "dims</w>": 3702,
    "din": 3703,
    "din</w>": 3704,
    "ding": 3705,
    "ding'</w>": 3706,
    "ding0</w>": 3707,
    "ding</w>": 3708,
    "ding_": 3709,
    "dings</w>": 3710,
    "dio": 3711,
    "dio</w>": 3712,
    "dio_": 3713,
    "dir": 3714,
    "dir'</w>": 3715,
    "dir</w>": 3716,
    "dir_": 3717,
    "dir_path</w>": 3718,
    "dir`</w>": 3719,
    "direc": 3720,
    "directi": 3721,
    "directive</w>": 3722,
    "directives</w>": 3723,
    "director": 3724,
    "directori": 3725,
    "directories</w>": 3726,
    "directory": 3727,
    "directory</w>": 3728,
    "directory_": 3729,
    "dirname</w>": 3730,
    "dis": 3731,
    "discrete": 3732,
    "discretefactor</w>": 3733,
    "dise": 3734,
    "disease</w>": 3735,
    "disjoint</w>": 3736,
    "dispat": 3737,
    "dispatcher</w>": 3738,
    "disper": 3739,
    "dispersion</w>": 3740,
    "display": 3741,
    "display_": 3742,
    "display_item</w>": 3743,
    "displayname</w>": 3744,
    "dist</w>": 3745,
    "distan": 3746,
    "distance</w>": 3747,
    "distance_": 3748,
    "distances</w>": 3749,
    "distin": 3750,
    "distinct</w>": 3751,
    "distri": 3752,
    "distributed</w>": 3753,
    "distribution</w>": 3754,
    "distributions</w>": 3755,
    "div</w>": 3756,
    "divergence</w>": 3757,
    "divide</w>": 3758,
    "divided</w>": 3759,
    "divider</w>": 3760,
    "division</w>": 3761,
    "divisionerror</w>": 3762,
    "divisor</w>": 3763,
    "divmod</w>": 3764,
    "dj": 3765,
    "django": 3766,
    "django's</w>": 3767,
    "django</w>": 3768,
    "django_": 3769,
    "dk": 3770,
    "dk</w>": 3771,
    "dl": 3772,
    "dl</w>": 3773,
    "dm</w>": 3774,
    "dm_": 3775,
    "dmap</w>": 3776,
    "dmax</w>": 3777,
    "dmin</w>": 3778,
    "dms</w>": 3779,
    "dn": 3780,
    "dn</w>": 3781,
    "do": 3782,
    "do</w>": 3783,
    "do_": 3784,
    "doc": 3785,
    "doc__</w>": 3786,
    "docker": 3787,
    "dockerfile</w>": 3788,
    "docs</w>": 3789,
    "doctest</w>": 3790,
    "documen": 3791,
    "documentation</w>": 3792,
    "documented</w>": 3793,
    "doe": 3794,
    "does</w>": 3795,
    "doesn": 3796,
    "doesn't</w>": 3797,
    "dogram</w>": 3798,
    "doi</w>": 3799,
    "doing</w>": 3800,
    "dom</w>": 3801,
    "domain": 3802,
    "domain</w>": 3803,
    "domain_": 3804,
    "domains</w>": 3805,
    "don": 3806,
    "don't</w>": 3807,
    "don</w>": 3808,
    "done</w>": 3809,
    "done_callback</w>": 3810,
    "dons</w>": 3811,
    "dot": 3812,
    "dot1": 3813,
    "dot</w>": 3814,
    "dot_": 3815,
    "dou": 3816,
    "double</w>": 3817,
    "double_": 3818,
    "doublevector</w>": 3819,
    "dout</w>": 3820,
    "dow": 3821,
    "down": 3822,
    "down</w>": 3823,
    "download</w>": 3824,
    "download_": 3825,
    "download_dir</w>": 3826,
    "downstream</w>": 3827,
    "downtime</w>": 3828,
    "doy</w>": 3829,
    "dp</w>": 3830,
    "dp_": 3831,
    "dpath</w>": 3832,
    "dpi</w>": 3833,
    "dq": 3834,
    "dr": 3835,
    "draw": 3836,
    "drawn</w>": 3837,
    "dri": 3838,
    "drive</w>": 3839,
    "driver": 3840,
    "driver</w>": 3841,
    "driver_": 3842,
    "drivers</w>": 3843,
    "drives</w>": 3844,
    "drop": 3845,
    "drop_": 3846,
    "drop_duplicates</w>": 3847,
    "dropped</w>": 3848,
    "dry": 3849,
    "dry_": 3850,
    "dry_run</w>": 3851,
    "dryrun</w>": 3852,
    "ds": 3853,
    "ds9": 3854,
    "ds</w>": 3855,
    "ds_": 3856,
    "dst</w>": 3857,
    "dst_": 3858,
    "dt": 3859,
    "dt</w>": 3860,
    "dt_": 3861,
    "dtype</w>": 3862,
    "dtype_": 3863,
    "dtypes</w>": 3864,
    "du": 3865,
    "du</w>": 3866,
    "dual</w>": 3867,
    "due</w>": 3868,
    "dum": 3869,
    "dump</w>": 3870,
    "dumps</w>": 3871,
    "dup</w>": 3872,
    "dupli": 3873,
    "duplicate</w>": 3874,
    "duplicate_": 3875,
    "duplicated</w>": 3876,
    "duplicates</w>": 3877,
    "dur</w>": 3878,
    "duration'</w>": 3879,
    "duration</w>": 3880,
    "duration_": 3881,
    "durations</w>": 3882,
    "during</w>": 3883,
    "dut</w>": 3884,
    "dv": 3885,
    "dw": 3886,
    "dwprocessid</w>": 3887,
    "dx": 3888,
    "dx</w>": 3889,
    "dxpy</w>": 3890,
    "dy": 3891,
    "dy'</w>": 3892,
    "dy</w>": 3893,
    "dy_": 3894,
    "dyn": 3895,
    "dynami": 3896,
    "dynamic</w>": 3897,
    "dynamic_": 3898,
    "dynamically</w>": 3899,
    "dynamics</w>": 3900,
    "dz": 3901,
    "dz</w>": 3902,
    "e": 3903,
    "e\"</w>": 3904,
    "e'</w>": 3905,
    "e0</w>": 3906,
    "e1</w>": 3907,
    "e2</w>": 3908,
    "e501</w>": 3909,
    "e7": 3910,
    "e</w>": 3911,
    "e_": 3912,
    "ea</w>": 3913,
    "each</w>": 3914,
    "each_": 3915,
    "eager</w>": 3916,
    "ear": 3917,
    "easier</w>": 3918,
    "easily</w>": 3919,
    "east</w>": 3920,
    "easy</w>": 3921,
    "eb": 3922,
    "ebe</w>": 3923,
    "ec": 3924,
    "eccen": 3925,
    "eccentricity</w>": 3926,
    "ech</w>": 3927,
    "ed": 3928,
    "ed255": 3929,
    "ed25519": 3930,
    "ed</w>": 3931,
    "ed_": 3932,
    "edback</w>": 3933,
    "eded</w>": 3934,
    "edge": 3935,
    "edge</w>": 3936,
    "edge_": 3937,
    "edge_attr</w>": 3938,
    "edgecolor</w>": 3939,
    "edges</w>": 3940,
    "edges_": 3941,
    "eds</w>": 3942,
    "eds_": 3943,
    "edu</w>": 3944,
    "ee": 3945,
    "ee</w>": 3946,
    "ef</w>": 3947,
    "efermi</w>": 3948,
    "eff</w>": 3949,
    "effect</w>": 3950,
    "effecti": 3951,
    "effective</w>": 3952,
    "effective_": 3953,
    "effectively</w>": 3954,
    "effects</w>": 3955,
    "effici": 3956,
    "efficien": 3957,
    "efficiency</w>": 3958,
    "efficiently</w>": 3959,
    "effort</w>": 3960,
    "eg": 3961,
    "egg</w>": 3962,
    "ei</w>": 3963,
    "eid</w>": 3964,
    "eig": 3965,
    "eigen": 3966,
    "ein": 3967,
    "einsum</w>": 3968,
    "either</w>": 3969,
    "ek": 3970,
    "ek</w>": 3971,
    "el": 3972,
    "el</w>": 3973,
    "el_": 3974,
    "elap": 3975,
    "elapsed</w>": 3976,
    "elastic</w>": 3977,
    "elasticsearch</w>": 3978,
    "ele": 3979,
    "electro": 3980,
    "electrode</w>": 3981,
    "electrodes</w>": 3982,
    "elemen": 3983,
    "element": 3984,
    "element</w>": 3985,
    "elements</w>": 3986,
    "elements_": 3987,
    "elementtree</w>": 3988,
    "elev": 3989,
    "elevation</w>": 3990,
    "elimin": 3991,
    "eliminate</w>": 3992,
    "ellip": 3993,
    "els</w>": 3994,
    "else": 3995,
    "else</w>": 3996,
    "elsewhere</w>": 3997,
    "elts</w>": 3998,
    "em": 3999,
    "email</w>": 4000,
    "email_": 4001,
    "email_address</w>": 4002,
    "embed": 4003,
    "embedding</w>": 4004,
    "emo": 4005,
    "emoji</w>": 4006,
    "emon</w>": 4007,
    "emp": 4008,
    "empty": 4009,
    "empty</w>": 4010,
    "empty_": 4011,
    "emu</w>": 4012,
    "en": 4013,
    "en'</w>": 4014,
    "en</w>": 4015,
    "enable</w>": 4016,
    "enable_": 4017,
    "enable_doctest</w>": 4018,
    "enabled'</w>": 4019,
    "enabled</w>": 4020,
    "enables</w>": 4021,
    "enabling</w>": 4022,
    "enc_": 4023,
    "ence</w>": 4024,
    "enclosed</w>": 4025,
    "enco": 4026,
    "encode</w>": 4027,
    "encoding'</w>": 4028,
    "encoding</w>": 4029,
    "encoding_": 4030,
    "encodings</w>": 4031,
    "encoun": 4032,
    "encountered</w>": 4033,
    "encryp": 4034,
    "encrypted</w>": 4035,
    "encrypted_": 4036,
    "encryption</w>": 4037,
    "encryption_": 4038,
    "end": 4039,
    "end</w>": 4040,
    "end_": 4041,
    "end_date</w>": 4042,
    "end_idx</w>": 4043,
    "end_pos</w>": 4044,
    "end_time</w>": 4045,
    "endi": 4046,
    "endian</w>": 4047,
    "endianness</w>": 4048,
    "endpoint</w>": 4049,
    "endpoint_": 4050,
    "endpoints</w>": 4051,
    "endswith</w>": 4052,
    "endtime</w>": 4053,
    "energ": 4054,
    "energy</w>": 4055,
    "enforce</w>": 4056,
    "enforced</w>": 4057,
    "engine</w>": 4058,
    "enhan": 4059,
    "eno": 4060,
    "enoent</w>": 4061,
    "enough</w>": 4062,
    "enqueue</w>": 4063,
    "enri": 4064,
    "enroll": 4065,
    "ensem": 4066,
    "ensemble</w>": 4067,
    "ensure</w>": 4068,
    "ensure_": 4069,
    "ensure_ascii</w>": 4070,
    "ensures</w>": 4071,
    "ensuring</w>": 4072,
    "ent</w>": 4073,
    "ent_": 4074,
    "enter</w>": 4075,
    "entered</w>": 4076,
    "entering</w>": 4077,
    "enterprise</w>": 4078,
    "enterprise_": 4079,
    "enterprise_customer</w>": 4080,
    "entire</w>": 4081,
    "entirely</w>": 4082,
    "entities</w>": 4083,
    "entity": 4084,
    "entity</w>": 4085,
    "entity_": 4086,
    "entre": 4087,
    "entries</w>": 4088,
    "entropy</w>": 4089,
    "entry": 4090,
    "entry</w>": 4091,
    "entry_": 4092,
    "entry_point</w>": 4093,
    "entry_points</w>": 4094,
    "ents</w>": 4095,
    "env": 4096,
    "env</w>": 4097,
    "env_": 4098,
    "env_var</w>": 4099,
    "env_vars</w>": 4100,
    "envi": 4101,
    "environ": 4102,
    "environmen": 4103,
    "environment</w>": 4104,
    "environmenterror</w>": 4105,
    "eof</w>": 4106,
    "eoferror</w>": 4107,
    "eol</w>": 4108,
    "eopatch</w>": 4109,
    "eos</w>": 4110,
    "ep": 4111,
    "ep</w>": 4112,
    "ep_": 4113,
    "eping</w>": 4114,
    "episo": 4115,
    "episode</w>": 4116,
    "epsilon</w>": 4117,
    "eq": 4118,
    "eq</w>": 4119,
    "eqcorrscan</w>": 4120,
    "equ": 4121,
    "equal</w>": 4122,
    "equation</w>": 4123,
    "equations</w>": 4124,
    "equi": 4125,
    "equilibri": 4126,
    "equilibrium</w>": 4127,
    "equipamen": 4128,
    "equipamento</w>": 4129,
    "equivalen": 4130,
    "equivalent</w>": 4131,
    "er": 4132,
    "er</w>": 4133,
    "er_": 4134,
    "erar": 4135,
    "ero</w>": 4136,
    "ero_": 4137,
    "eros</w>": 4138,
    "err": 4139,
    "err</w>": 4140,
    "err_": 4141,
    "err_msg</w>": 4142,
    "error": 4143,
    "error\"</w>": 4144,
    "error'</w>": 4145,
    "error</w>": 4146,
    "error_": 4147,
    "error_code</w>": 4148,
    "error_message</w>": 4149,
    "error_msg</w>": 4150,
    "error_string</w>": 4151,
    "error`</w>": 4152,
    "errorcode</w>": 4153,
    "errors'</w>": 4154,
    "errors</w>": 4155,
    "ers</w>": 4156,
    "es": 4157,
    "es'</w>": 4158,
    "es</w>": 4159,
    "es_": 4160,
    "es`</w>": 4161,
    "escape</w>": 4162,
    "especi": 4163,
    "especially</w>": 4164,
    "essen": 4165,
    "essentially</w>": 4166,
    "estimate</w>": 4167,
    "et": 4168,
    "et</w>": 4169,
    "eta</w>": 4170,
    "etag</w>": 4171,
    "etc</w>": 4172,
    "etcd</w>": 4173,
    "ethere": 4174,
    "ethereum</w>": 4175,
    "etree</w>": 4176,
    "eu</w>": 4177,
    "euclide": 4178,
    "euclidean</w>": 4179,
    "euler</w>": 4180,
    "ev": 4181,
    "eval</w>": 4182,
    "evalu": 4183,
    "evaluate</w>": 4184,
    "evaluate_": 4185,
    "evaluated</w>": 4186,
    "evaluates</w>": 4187,
    "evaluating</w>": 4188,
    "evaluation</w>": 4189,
    "evaluations</w>": 4190,
    "evaluator</w>": 4191,
    "eve</w>": 4192,
    "eved</w>": 4193,
    "even": 4194,
    "event": 4195,
    "event'</w>": 4196,
    "event</w>": 4197,
    "event_": 4198,
    "event_loop</w>": 4199,
    "events</w>": 4200,
    "events_": 4201,
    "ever": 4202,
    "every": 4203,
    "every</w>": 4204,
    "everything</w>": 4205,
    "evt_": 4206,
    "ew": 4207,
    "ex": 4208,
    "exact</w>": 4209,
    "exactly</w>": 4210,
    "exactly_one</w>": 4211,
    "examine</w>": 4212,
    "example</w>": 4213,
    "example_": 4214,
    "examples</w>": 4215,
    "exc</w>": 4216,
    "exc_": 4217,
    "exc_info</w>": 4218,
    "exce": 4219,
    "exceeded</w>": 4220,
    "exceeds</w>": 4221,
    "excep": 4222,
    "except</w>": 4223,
    "exception": 4224,
    "exception</w>": 4225,
    "exception_": 4226,
    "exceptions</w>": 4227,
    "exchange</w>": 4228,
    "exchanges</w>": 4229,
    "excl</w>": 4230,
    "exclu": 4231,
    "exclude</w>": 4232,
    "exclude_": 4233,
    "excluded</w>": 4234,
    "excludes</w>": 4235,
    "excluding</w>": 4236,
    "exclusive</w>": 4237,
    "exe'</w>": 4238,
    "exe</w>": 4239,
    "exec": 4240,
    "exec_": 4241,
    "exec_command</w>": 4242,
    "execute</w>": 4243,
    "execute_": 4244,
    "execute_command</w>": 4245,
    "execution_": 4246,
    "execution_date</w>": 4247,
    "exer": 4248,
    "exercise</w>": 4249,
    "exhausted</w>": 4250,
    "exi": 4251,
    "exist_": 4252,
    "exist_ok</w>": 4253,
    "exists</w>": 4254,
    "exit": 4255,
    "exit</w>": 4256,
    "exit_": 4257,
    "exit_code</w>": 4258,
    "exitcode</w>": 4259,
    "exon</w>": 4260,
    "exons</w>": 4261,
    "exp": 4262,
    "expan": 4263,
    "expand": 4264,
    "expand_": 4265,
    "expand_dims</w>": 4266,
    "expanduser</w>": 4267,
    "expansion</w>": 4268,
    "expen": 4269,
    "expensive</w>": 4270,
    "experimen": 4271,
    "experimental</w>": 4272,
    "expires_": 4273,
    "expires_at</w>": 4274,
    "expl": 4275,
    "explained</w>": 4276,
    "explan": 4277,
    "explanation</w>": 4278,
    "expli": 4279,
    "explicit</w>": 4280,
    "explicitly</w>": 4281,
    "expo": 4282,
    "exponen": 4283,
    "exponenti": 4284,
    "exponential</w>": 4285,
    "export_": 4286,
    "export_dir</w>": 4287,
    "exposure</w>": 4288,
    "exposure_": 4289,
    "exposures</w>": 4290,
    "expr</w>": 4291,
    "ext": 4292,
    "ext</w>": 4293,
    "exten": 4294,
    "extension": 4295,
    "extension</w>": 4296,
    "extension_": 4297,
    "extensions</w>": 4298,
    "extern": 4299,
    "external": 4300,
    "external</w>": 4301,
    "external_": 4302,
    "extmethods</w>": 4303,
    "extra_": 4304,
    "extra_args</w>": 4305,
    "extract_": 4306,
    "eye</w>": 4307,
    "eze</w>": 4308,
    "f": 4309,
    "f\"": 4310,
    "f\"</w>": 4311,
    "f'</w>": 4312,
    "f0</w>": 4313,
    "f1</w>": 4314,
    "f2": 4315,
    "f2</w>": 4316,
    "f3</w>": 4317,
    "f4</w>": 4318,
    "f8": 4319,
    "f9": 4320,
    "f</w>": 4321,
    "f_": 4322,
    "f_code</w>": 4323,
    "f`</w>": 4324,
    "f``</w>": 4325,
    "fa": 4326,
    "fac": 4327,
    "facade</w>": 4328,
    "face\"</w>": 4329,
    "face'</w>": 4330,
    "face</w>": 4331,
    "face_": 4332,
    "faces</w>": 4333,
    "fact</w>": 4334,
    "fact_": 4335,
    "factor</w>": 4336,
    "facts</w>": 4337,
    "fail": 4338,
    "fail_": 4339,
    "fail_silently</w>": 4340,
    "failed</w>": 4341,
    "failure</w>": 4342,
    "failure_": 4343,
    "failures</w>": 4344,
    "fal": 4345,
    "fall": 4346,
    "fallback</w>": 4347,
    "false": 4348,
    "false</w>": 4349,
    "false`</w>": 4350,
    "false``</w>": 4351,
    "fan": 4352,
    "fancy</w>": 4353,
    "fast": 4354,
    "fastq": 4355,
    "fastq</w>": 4356,
    "faul": 4357,
    "fb": 4358,
    "fb</w>": 4359,
    "fc": 4360,
    "fc</w>": 4361,
    "fcn": 4362,
    "fcntl</w>": 4363,
    "fd": 4364,
    "fd</w>": 4365,
    "fdata</w>": 4366,
    "fds</w>": 4367,
    "fe": 4368,
    "feat": 4369,
    "features</w>": 4370,
    "fect</w>": 4371,
    "feed</w>": 4372,
    "feedback</w>": 4373,
    "fer</w>": 4374,
    "fer_": 4375,
    "feren": 4376,
    "fermi</w>": 4377,
    "ferred</w>": 4378,
    "fet": 4379,
    "fetch": 4380,
    "fetch</w>": 4381,
    "fetch_": 4382,
    "fetchall</w>": 4383,
    "fetched</w>": 4384,
    "fetcher</w>": 4385,
    "fetches</w>": 4386,
    "fetching</w>": 4387,
    "fetchone</w>": 4388,
    "few</w>": 4389,
    "fewer</w>": 4390,
    "ff": 4391,
    "ff</w>": 4392,
    "ff_": 4393,
    "ffect</w>": 4394,
    "ffecti": 4395,
    "ffects</w>": 4396,
    "ffer": 4397,
    "ffer</w>": 4398,
    "ffer_": 4399,
    "fferen": 4400,
    "fferent</w>": 4401,
    "ffers</w>": 4402,
    "fff</w>": 4403,
    "ffff": 4404,
    "ffff</w>": 4405,
    "ffffffff": 4406,
    "ffi": 4407,
    "ffici": 4408,
    "ffle</w>": 4409,
    "ffort</w>": 4410,
    "ffs</w>": 4411,
    "fft</w>": 4412,
    "ffu": 4413,
    "fg</w>": 4414,
    "fget</w>": 4415,
    "fh": 4416,
    "fh</w>": 4417,
    "fi": 4418,
    "fication</w>": 4419,
    "fied</w>": 4420,
    "fiel": 4421,
    "field": 4422,
    "field's</w>": 4423,
    "field</w>": 4424,
    "field_": 4425,
    "field_name</w>": 4426,
    "field_type</w>": 4427,
    "fields</w>": 4428,
    "fig": 4429,
    "fig</w>": 4430,
    "figsize</w>": 4431,
    "fil": 4432,
    "file": 4433,
    "file\"\"\"</w>": 4434,
    "file\"</w>": 4435,
    "file's</w>": 4436,
    "file</w>": 4437,
    "file_": 4438,
    "file__</w>": 4439,
    "file_entry</w>": 4440,
    "file_exists</w>": 4441,
    "file_extension</w>": 4442,
    "file_handle</w>": 4443,
    "file_name</w>": 4444,
    "file_obj</w>": 4445,
    "file_object</w>": 4446,
    "file_path</w>": 4447,
    "file_size</w>": 4448,
    "file_system</w>": 4449,
    "file_transaction</w>": 4450,
    "file_type</w>": 4451,
    "file`</w>": 4452,
    "filehandle</w>": 4453,
    "filehandler</w>": 4454,
    "fileio</w>": 4455,
    "filename`</w>": 4456,
    "fileobj</w>": 4457,
    "fileobject</w>": 4458,
    "files</w>": 4459,
    "filetype</w>": 4460,
    "fill": 4461,
    "fill</w>": 4462,
    "fill_": 4463,
    "fill_value</w>": 4464,
    "fillna</w>": 4465,
    "fillvalue</w>": 4466,
    "filter": 4467,
    "filter</w>": 4468,
    "filter_": 4469,
    "filtered</w>": 4470,
    "filters</w>": 4471,
    "fin": 4472,
    "final": 4473,
    "final</w>": 4474,
    "final_": 4475,
    "finalize</w>": 4476,
    "finally</w>": 4477,
    "find</w>": 4478,
    "find_": 4479,
    "find_all</w>": 4480,
    "find_one</w>": 4481,
    "fine</w>": 4482,
    "fined</w>": 4483,
    "fines</w>": 4484,
    "fining</w>": 4485,
    "fining_": 4486,
    "finite</w>": 4487,
    "finition</w>": 4488,
    "finition_": 4489,
    "finitions</w>": 4490,
    "fir": 4491,
    "fire": 4492,
    "firewall</w>": 4493,
    "firm": 4494,
    "firmware</w>": 4495,
    "first": 4496,
    "first</w>": 4497,
    "first_": 4498,
    "fit": 4499,
    "fitness</w>": 4500,
    "five</w>": 4501,
    "fix": 4502,
    "fixed</w>": 4503,
    "fixed_": 4504,
    "fixme</w>": 4505,
    "fk": 4506,
    "fl": 4507,
    "flag": 4508,
    "flag</w>": 4509,
    "flag_": 4510,
    "flags</w>": 4511,
    "flash</w>": 4512,
    "flask</w>": 4513,
    "flat_": 4514,
    "flatten</w>": 4515,
    "flattened</w>": 4516,
    "flavor</w>": 4517,
    "fli": 4518,
    "flo": 4519,
    "float": 4520,
    "float32</w>": 4521,
    "float64</w>": 4522,
    "float</w>": 4523,
    "float`</w>": 4524,
    "floor</w>": 4525,
    "flow</w>": 4526,
    "flow_": 4527,
    "flows</w>": 4528,
    "flu": 4529,
    "flush</w>": 4530,
    "flux": 4531,
    "flux</w>": 4532,
    "fluxes</w>": 4533,
    "fm": 4534,
    "fmt</w>": 4535,
    "fmtstr</w>": 4536,
    "fn": 4537,
    "fn</w>": 4538,
    "fname</w>": 4539,
    "fnmatch</w>": 4540,
    "fo": 4541,
    "fo</w>": 4542,
    "fol": 4543,
    "folder</w>": 4544,
    "follo": 4545,
    "follow_": 4546,
    "follow_symlinks</w>": 4547,
    "fon": 4548,
    "font": 4549,
    "font</w>": 4550,
    "font_": 4551,
    "fontsize</w>": 4552,
    "foo": 4553,
    "footer</w>": 4554,
    "footprint</w>": 4555,
    "for": 4556,
    "for</w>": 4557,
    "for_": 4558,
    "forbidden</w>": 4559,
    "force": 4560,
    "force</w>": 4561,
    "force_": 4562,
    "force_mavlink1</w>": 4563,
    "forced</w>": 4564,
    "forcing</w>": 4565,
    "fore": 4566,
    "fore</w>": 4567,
    "fore_": 4568,
    "foreign</w>": 4569,
    "fork</w>": 4570,
    "form</w>": 4571,
    "form_": 4572,
    "form_class</w>": 4573,
    "format": 4574,
    "format</w>": 4575,
    "format_": 4576,
    "format_exc</w>": 4577,
    "format_str</w>": 4578,
    "format_string</w>": 4579,
    "formatter_": 4580,
    "formatter_class</w>": 4581,
    "formed</w>": 4582,
    "forms</w>": 4583,
    "formul": 4584,
    "formula</w>": 4585,
    "fortun": 4586,
    "fortunately</w>": 4587,
    "forward</w>": 4588,
    "forward_": 4589,
    "forwarded</w>": 4590,
    "forwards</w>": 4591,
    "found": 4592,
    "found\"</w>": 4593,
    "found'</w>": 4594,
    "found</w>": 4595,
    "found_": 4596,
    "foundations</w>": 4597,
    "founderror</w>": 4598,
    "fourier</w>": 4599,
    "fp</w>": 4600,
    "fp_</w>": 4601,
    "fpars</w>": 4602,
    "fpath</w>": 4603,
    "fps</w>": 4604,
    "fptr</w>": 4605,
    "fq": 4606,
    "fqdn</w>": 4607,
    "fr": 4608,
    "fr</w>": 4609,
    "frac</w>": 4610,
    "frac_": 4611,
    "frac_coords</w>": 4612,
    "fraction": 4613,
    "fraction</w>": 4614,
    "fractional</w>": 4615,
    "frag": 4616,
    "fragment</w>": 4617,
    "fragments</w>": 4618,
    "frame": 4619,
    "frame</w>": 4620,
    "frame_": 4621,
    "frames</w>": 4622,
    "framework</w>": 4623,
    "fre": 4624,
    "free": 4625,
    "free</w>": 4626,
    "free_": 4627,
    "frequen": 4628,
    "frequencies</w>": 4629,
    "frequency": 4630,
    "frequency</w>": 4631,
    "frequency_": 4632,
    "frequencyseries</w>": 4633,
    "fresh</w>": 4634,
    "fri": 4635,
    "fro": 4636,
    "from": 4637,
    "from</w>": 4638,
    "from_": 4639,
    "from_array</w>": 4640,
    "from_date</w>": 4641,
    "from_file</w>": 4642,
    "from_iterable</w>": 4643,
    "from_string</w>": 4644,
    "fromtimestamp</w>": 4645,
    "fron": 4646,
    "frontend</w>": 4647,
    "frontier</w>": 4648,
    "froz": 4649,
    "frozen": 4650,
    "frozenset</w>": 4651,
    "fs'</w>": 4652,
    "fs</w>": 4653,
    "fs_": 4654,
    "fset</w>": 4655,
    "fsize</w>": 4656,
    "fsm</w>": 4657,
    "fstr</w>": 4658,
    "fstype</w>": 4659,
    "ft": 4660,
    "ft\"</w>": 4661,
    "ft'</w>": 4662,
    "ft</w>": 4663,
    "ft_": 4664,
    "ftc</w>": 4665,
    "fted</w>": 4666,
    "ftime</w>": 4667,
    "fts</w>": 4668,
    "fu": 4669,
    "ful": 4670,
    "ful</w>": 4671,
    "full": 4672,
    "full</w>": 4673,
    "full_": 4674,
    "full_name</w>": 4675,
    "full_path</w>": 4676,
    "fullname</w>": 4677,
    "fullpath</w>": 4678,
    "fully</w>": 4679,
    "fun": 4680,
    "func": 4681,
    "func`</w>": 4682,
    "funce": 4683,
    "funceble</w>": 4684,
    "function": 4685,
    "function\"\"\"</w>": 4686,
    "function's</w>": 4687,
    "function</w>": 4688,
    "functional</w>": 4689,
    "functionality</w>": 4690,
    "functiontype</w>": 4691,
    "future": 4692,
    "future</w>": 4693,
    "future`</w>": 4694,
    "fuzz": 4695,
    "fv</w>": 4696,
    "fval</w>": 4697,
    "fvalue</w>": 4698,
    "fw": 4699,
    "fw</w>": 4700,
    "fx": 4701,
    "fx</w>": 4702,
    "fy": 4703,
    "fy</w>": 4704,
    "fy_": 4705,
    "fying</w>": 4706,
    "g": 4707,
    "g\"</w>": 4708,
    "g'</w>": 4709,
    "g1</w>": 4710,
    "g2</w>": 4711,
    "g</w>": 4712,
    "g_": 4713,
    "ga</w>": 4714,
    "gai": 4715,
    "gain</w>": 4716,
    "gal": 4717,
    "galactocen": 4718,
    "galactocentric</w>": 4719,
    "gam": 4720,
    "game</w>": 4721,
    "gamma</w>": 4722,
    "gandi</w>": 4723,
    "gap</w>": 4724,
    "gapic_": 4725,
    "gapic_v1</w>": 4726,
    "gaps</w>": 4727,
    "garbage</w>": 4728,
    "gas</w>": 4729,
    "gast</w>": 4730,
    "gate": 4731,
    "gate</w>": 4732,
    "gateway</w>": 4733,
    "gather</w>": 4734,
    "gau": 4735,
    "gaussi": 4736,
    "gaussian</w>": 4737,
    "gb</w>": 4738,
    "gc</w>": 4739,
    "gca</w>": 4740,
    "gcd</w>": 4741,
    "gcf</w>": 4742,
    "gcs</w>": 4743,
    "gd</w>": 4744,
    "gdal</w>": 4745,
    "gdb</w>": 4746,
    "ge": 4747,
    "ge</w>": 4748,
    "ge_": 4749,
    "ge_id</w>": 4750,
    "gecolor</w>": 4751,
    "ged</w>": 4752,
    "generate_": 4753,
    "generi": 4754,
    "generic</w>": 4755,
    "generic_": 4756,
    "geno": 4757,
    "genome</w>": 4758,
    "genome_": 4759,
    "genomes</w>": 4760,
    "genomic</w>": 4761,
    "geo": 4762,
    "geodetic</w>": 4763,
    "geojson</w>": 4764,
    "geom</w>": 4765,
    "geome": 4766,
    "geometry</w>": 4767,
    "ger</w>": 4768,
    "ger_": 4769,
    "ger_name</w>": 4770,
    "gered</w>": 4771,
    "gers</w>": 4772,
    "ges</w>": 4773,
    "ges_": 4774,
    "gest</w>": 4775,
    "gested</w>": 4776,
    "gestion</w>": 4777,
    "gestions</w>": 4778,
    "get": 4779,
    "get</w>": 4780,
    "get_": 4781,
    "get_all</w>": 4782,
    "get_all_": 4783,
    "get_attribute</w>": 4784,
    "get_cloud_config_value</w>": 4785,
    "get_collection</w>": 4786,
    "get_dictitem</w>": 4787,
    "get_error'</w>": 4788,
    "get_event_loop</w>": 4789,
    "get_identifier</w>": 4790,
    "get_mean_": 4791,
    "get_mean_and_stddevs</w>": 4792,
    "get_model</w>": 4793,
    "get_object</w>": 4794,
    "get_object_": 4795,
    "get_option</w>": 4796,
    "get_or_create</w>": 4797,
    "get_port_": 4798,
    "get_property</w>": 4799,
    "get_queryset</w>": 4800,
    "get_sample_name</w>": 4801,
    "get_shape</w>": 4802,
    "get_stp_mst_": 4803,
    "get_stp_mst_detail</w>": 4804,
    "get_template</w>": 4805,
    "get_text</w>": 4806,
    "get_user</w>": 4807,
    "get_user_": 4808,
    "get_v": 4809,
    "get_value</w>": 4810,
    "get_ylim</w>": 4811,
    "getboolean</w>": 4812,
    "getchildren</w>": 4813,
    "getcwd</w>": 4814,
    "getelemen": 4815,
    "getelementsby": 4816,
    "getelementsbytagname</w>": 4817,
    "gether</w>": 4818,
    "getmembers</w>": 4819,
    "getmtime</w>": 4820,
    "gets</w>": 4821,
    "getvalue</w>": 4822,
    "gex</w>": 4823,
    "gf</w>": 4824,
    "gff</w>": 4825,
    "gfile</w>": 4826,
    "gg</w>": 4827,
    "gh": 4828,
    "gh</w>": 4829,
    "gi": 4830,
    "gify</w>": 4831,
    "gin": 4832,
    "gin</w>": 4833,
    "gin_": 4834,
    "gine</w>": 4835,
    "ging</w>": 4836,
    "gins</w>": 4837,
    "gith": 4838,
    "githu": 4839,
    "github</w>": 4840,
    "githubobject</w>": 4841,
    "gitu": 4842,
    "giv": 4843,
    "given</w>": 4844,
    "gl": 4845,
    "glan": 4846,
    "gle</w>": 4847,
    "glob": 4848,
    "global": 4849,
    "global</w>": 4850,
    "global_": 4851,
    "global_step</w>": 4852,
    "globaltt</w>": 4853,
    "gly</w>": 4854,
    "gm": 4855,
    "gments</w>": 4856,
    "gn": 4857,
    "gname</w>": 4858,
    "gni": 4859,
    "go": 4860,
    "go2": 4861,
    "go2obj</w>": 4862,
    "go</w>": 4863,
    "goal</w>": 4864,
    "goes</w>": 4865,
    "going</w>": 4866,
    "gon": 4867,
    "gon</w>": 4868,
    "gons</w>": 4869,
    "goo": 4870,
    "good</w>": 4871,
    "good_": 4872,
    "goog": 4873,
    "gor": 4874,
    "gorith": 4875,
    "got</w>": 4876,
    "gov</w>": 4877,
    "gp": 4878,
    "gr</w>": 4879,
    "grab</w>": 4880,
    "grace": 4881,
    "gracefully</w>": 4882,
    "grad</w>": 4883,
    "grad_": 4884,
    "grade": 4885,
    "gradi": 4886,
    "gradient</w>": 4887,
    "grads</w>": 4888,
    "grain</w>": 4889,
    "grains</w>": 4890,
    "gram": 4891,
    "gram</w>": 4892,
    "gran": 4893,
    "grant_type</w>": 4894,
    "granted</w>": 4895,
    "granul": 4896,
    "granularity</w>": 4897,
    "grap": 4898,
    "graph": 4899,
    "graph</w>": 4900,
    "graphq": 4901,
    "graphql": 4902,
    "graphviz</w>": 4903,
    "gray</w>": 4904,
    "gre": 4905,
    "great</w>": 4906,
    "greater</w>": 4907,
    "green</w>": 4908,
    "greg": 4909,
    "gress</w>": 4910,
    "grid": 4911,
    "grid</w>": 4912,
    "grid_": 4913,
    "gro": 4914,
    "group": 4915,
    "group</w>": 4916,
    "group_": 4917,
    "group_id</w>": 4918,
    "group_name</w>": 4919,
    "groups</w>": 4920,
    "grow": 4921,
    "growth</w>": 4922,
    "grp</w>": 4923,
    "grpc</w>": 4924,
    "grph</w>": 4925,
    "grr</w>": 4926,
    "gs": 4927,
    "gs'</w>": 4928,
    "gs</w>": 4929,
    "gs_": 4930,
    "gt</w>": 4931,
    "gtf</w>": 4932,
    "gtfs</w>": 4933,
    "gtk</w>": 4934,
    "gtr</w>": 4935,
    "gu": 4936,
    "guarante": 4937,
    "guaranteed</w>": 4938,
    "guard</w>": 4939,
    "guide</w>": 4940,
    "gul": 4941,
    "gw": 4942,
    "gwpy</w>": 4943,
    "gx</w>": 4944,
    "gy": 4945,
    "gy</w>": 4946,
    "gz": 4947,
    "gz'</w>": 4948,
    "gzip</w>": 4949,
    "h": 4950,
    "h\"</w>": 4951,
    "h'</w>": 4952,
    "h0</w>": 4953,
    "h1</w>": 4954,
    "h2": 4955,
    "h2o": 4956,
    "h2o</w>": 4957,
    "h2oframe</w>": 4958,
    "h3</w>": 4959,
    "h5": 4960,
    "h5file</w>": 4961,
    "h5py</w>": 4962,
    "h</w>": 4963,
    "h_": 4964,
    "ha": 4965,
    "hal": 4966,
    "half</w>": 4967,
    "half_": 4968,
    "hamil": 4969,
    "hamiltonian</w>": 4970,
    "han": 4971,
    "hand": 4972,
    "handle</w>": 4973,
    "handle_": 4974,
    "handled</w>": 4975,
    "handler</w>": 4976,
    "handlers</w>": 4977,
    "handles</w>": 4978,
    "haps</w>": 4979,
    "has_": 4980,
    "has_option</w>": 4981,
    "has_section</w>": 4982,
    "hash": 4983,
    "hash_": 4984,
    "hash_algorithm</w>": 4985,
    "hashlib</w>": 4986,
    "hasn": 4987,
    "hasn't</w>": 4988,
    "hausted</w>": 4989,
    "have</w>": 4990,
    "haven": 4991,
    "haven't</w>": 4992,
    "haves</w>": 4993,
    "havior</w>": 4994,
    "haviour</w>": 4995,
    "haz": 4996,
    "hazard</w>": 4997,
    "hazard_": 4998,
    "hc</w>": 4999,
    "hd": 5000,
    "hdf": 5001,
    "hdf5": 5002,
    "hdf5</w>": 5003,
    "hdu</w>": 5004,
    "hdulist</w>": 5005,
    "he": 5006,
    "head</w>": 5007,
    "head_": 5008,
    "header": 5009,
    "header</w>": 5010,
    "header_": 5011,
    "header_parameters</w>": 5012,
    "headers</w>": 5013,
    "heading</w>": 5014,
    "heads</w>": 5015,
    "heal": 5016,
    "healpix</w>": 5017,
    "health": 5018,
    "health</w>": 5019,
    "heap</w>": 5020,
    "heart": 5021,
    "heartbe": 5022,
    "heartbeat</w>": 5023,
    "heat": 5024,
    "heat</w>": 5025,
    "heatmap</w>": 5026,
    "heavy</w>": 5027,
    "hedral</w>": 5028,
    "height</w>": 5029,
    "heights</w>": 5030,
    "hel": 5031,
    "help": 5032,
    "help</w>": 5033,
    "help_": 5034,
    "helper</w>": 5035,
    "helpers</w>": 5036,
    "hen": 5037,
    "herit</w>": 5038,
    "heritance</w>": 5039,
    "herited</w>": 5040,
    "herits</w>": 5041,
    "hessi": 5042,
    "hessian</w>": 5043,
    "heuristic</w>": 5044,
    "hex": 5045,
    "hexadecimal</w>": 5046,
    "hexdigest</w>": 5047,
    "hexli": 5048,
    "hexlify</w>": 5049,
    "hg": 5050,
    "hgn": 5051,
    "hgnc_": 5052,
    "hgnc_symbol</w>": 5053,
    "hh": 5054,
    "hh</w>": 5055,
    "hi": 5056,
    "hid": 5057,
    "hidden</w>": 5058,
    "hidden_": 5059,
    "hidden_size</w>": 5060,
    "hierar": 5061,
    "hierarchy": 5062,
    "hierarchy</w>": 5063,
    "hind</w>": 5064,
    "histo": 5065,
    "histogram</w>": 5066,
    "histor": 5067,
    "history_": 5068,
    "hive</w>": 5069,
    "hk": 5070,
    "hl": 5071,
    "hline</w>": 5072,
    "hm": 5073,
    "hmac</w>": 5074,
    "hmm</w>": 5075,
    "hn</w>": 5076,
    "ho": 5077,
    "ho</w>": 5078,
    "holder</w>": 5079,
    "holders</w>": 5080,
    "home</w>": 5081,
    "home_": 5082,
    "home_dir</w>": 5083,
    "hoo": 5084,
    "hook</w>": 5085,
    "hope": 5086,
    "hopefully</w>": 5087,
    "hori": 5088,
    "horizon": 5089,
    "horizontal": 5090,
    "horizontal</w>": 5091,
    "horizontalalignment</w>": 5092,
    "hort</w>": 5093,
    "host": 5094,
    "host'</w>": 5095,
    "host</w>": 5096,
    "hostname</w>": 5097,
    "hot</w>": 5098,
    "hotkey</w>": 5099,
    "hourly</w>": 5100,
    "hours</w>": 5101,
    "house</w>": 5102,
    "how</w>": 5103,
    "hp": 5104,
    "hp</w>": 5105,
    "hparam</w>": 5106,
    "hparams</w>": 5107,
    "hr</w>": 5108,
    "href</w>": 5109,
    "hrf</w>": 5110,
    "hs</w>": 5111,
    "hs_": 5112,
    "hsm</w>": 5113,
    "hsp</w>": 5114,
    "hspace</w>": 5115,
    "hstack</w>": 5116,
    "ht": 5117,
    "html": 5118,
    "html\"</w>": 5119,
    "html</w>": 5120,
    "html_": 5121,
    "htt": 5122,
    "http": 5123,
    "http404</w>": 5124,
    "http</w>": 5125,
    "http_": 5126,
    "http_data_": 5127,
    "http_info</w>": 5128,
    "http_method</w>": 5129,
    "httpclient</w>": 5130,
    "https</w>": 5131,
    "hu": 5132,
    "hun": 5133,
    "hunt_id</w>": 5134,
    "hv": 5135,
    "hw": 5136,
    "hx</w>": 5137,
    "hy": 5138,
    "hyd": 5139,
    "hydpy</w>": 5140,
    "hyper": 5141,
    "hypervisor</w>": 5142,
    "hypo": 5143,
    "hypothesis</w>": 5144,
    "hz</w>": 5145,
    "i": 5146,
    "i\"</w>": 5147,
    "i'</w>": 5148,
    "i'm</w>": 5149,
    "i0</w>": 5150,
    "i18": 5151,
    "i1</w>": 5152,
    "i2": 5153,
    "i2</w>": 5154,
    "i2c</w>": 5155,
    "i3": 5156,
    "i</w>": 5157,
    "i_": 5158,
    "i`</w>": 5159,
    "ia</w>": 5160,
    "iam</w>": 5161,
    "ias</w>": 5162,
    "iat</w>": 5163,
    "ib": 5164,
    "ic": 5165,
    "ic</w>": 5166,
    "icao</w>": 5167,
    "ichio": 5168,
    "icon</w>": 5169,
    "id": 5170,
    "id\"\"\"</w>": 5171,
    "id\"</w>": 5172,
    "id'</w>": 5173,
    "id's</w>": 5174,
    "id</w>": 5175,
    "id_": 5176,
    "id_col</w>": 5177,
    "id`</w>": 5178,
    "id``</w>": 5179,
    "ide": 5180,
    "ide</w>": 5181,
    "idea</w>": 5182,
    "ideally</w>": 5183,
    "iden": 5184,
    "identi": 5185,
    "identifi": 5186,
    "identifier</w>": 5187,
    "identifiers</w>": 5188,
    "identify</w>": 5189,
    "identifying</w>": 5190,
    "ids'</w>": 5191,
    "ids</w>": 5192,
    "idx</w>": 5193,
    "idx_": 5194,
    "ie": 5195,
    "ier</w>": 5196,
    "ietf</w>": 5197,
    "if": 5198,
    "if</w>": 5199,
    "if_": 5200,
    "if_exists</w>": 5201,
    "iface</w>": 5202,
    "ifo</w>": 5203,
    "ig": 5204,
    "igen": 5205,
    "igh": 5206,
    "ight'</w>": 5207,
    "ight</w>": 5208,
    "ight_": 5209,
    "ighted</w>": 5210,
    "ighting</w>": 5211,
    "ights</w>": 5212,
    "ights_": 5213,
    "ign</w>": 5214,
    "ignore</w>": 5215,
    "ignore_": 5216,
    "ignore_errors</w>": 5217,
    "ignored</w>": 5218,
    "ii": 5219,
    "ii</w>": 5220,
    "ij": 5221,
    "ij</w>": 5222,
    "ik</w>": 5223,
    "il": 5224,
    "il</w>": 5225,
    "ili": 5226,
    "illa</w>": 5227,
    "illegal": 5228,
    "illegalstate</w>": 5229,
    "ilo": 5230,
    "iloerror</w>": 5231,
    "ily</w>": 5232,
    "im": 5233,
    "ima": 5234,
    "image": 5235,
    "image</w>": 5236,
    "image_": 5237,
    "image_shape</w>": 5238,
    "image`</w>": 5239,
    "imagin": 5240,
    "imaginary</w>": 5241,
    "imal</w>": 5242,
    "imc</w>": 5243,
    "imi": 5244,
    "immedi": 5245,
    "immediate</w>": 5246,
    "immediately</w>": 5247,
    "imple": 5248,
    "implemen": 5249,
    "implementation</w>": 5250,
    "implementations</w>": 5251,
    "implemented</w>": 5252,
    "implementing</w>": 5253,
    "impli": 5254,
    "implicit</w>": 5255,
    "impor": 5256,
    "import_": 5257,
    "import__</w>": 5258,
    "import_module</w>": 5259,
    "importerror</w>": 5260,
    "impro": 5261,
    "improperly": 5262,
    "improperlyconfigured</w>": 5263,
    "improve</w>": 5264,
    "improved</w>": 5265,
    "improvement</w>": 5266,
    "imum</w>": 5267,
    "imum_": 5268,
    "imuth</w>": 5269,
    "in": 5270,
    "in</w>": 5271,
    "in_": 5272,
    "in_file</w>": 5273,
    "in_handle</w>": 5274,
    "inactive</w>": 5275,
    "inasafe</w>": 5276,
    "inch</w>": 5277,
    "inches</w>": 5278,
    "incident</w>": 5279,
    "inclination</w>": 5280,
    "inclu": 5281,
    "include</w>": 5282,
    "include_": 5283,
    "included</w>": 5284,
    "includes</w>": 5285,
    "including</w>": 5286,
    "inclusive</w>": 5287,
    "income</w>": 5288,
    "incoming</w>": 5289,
    "incompatible</w>": 5290,
    "incomplete</w>": 5291,
    "inconsistent</w>": 5292,
    "incorrect</w>": 5293,
    "incorrectly</w>": 5294,
    "incr</w>": 5295,
    "incre": 5296,
    "increase</w>": 5297,
    "increased</w>": 5298,
    "increases</w>": 5299,
    "increasing</w>": 5300,
    "incremen": 5301,
    "incremental</w>": 5302,
    "incremented</w>": 5303,
    "ind": 5304,
    "ind</w>": 5305,
    "inden": 5306,
    "indentation</w>": 5307,
    "indented</w>": 5308,
    "independen": 5309,
    "independently</w>": 5310,
    "index": 5311,
    "index</w>": 5312,
    "index_": 5313,
    "index_col</w>": 5314,
    "indexable</w>": 5315,
    "indexed</w>": 5316,
    "indexer</w>": 5317,
    "indexerror</w>": 5318,
    "indexes</w>": 5319,
    "indi": 5320,
    "individ": 5321,
    "individual</w>": 5322,
    "individually</w>": 5323,
    "individuals</w>": 5324,
    "indptr</w>": 5325,
    "iner</w>": 5326,
    "inet</w>": 5327,
    "inf": 5328,
    "influ": 5329,
    "influx": 5330,
    "info": 5331,
    "info\"</w>": 5332,
    "info'</w>": 5333,
    "info</w>": 5334,
    "infor": 5335,
    "information</w>": 5336,
    "ing</w>": 5337,
    "ing_": 5338,
    "inherit</w>": 5339,
    "inheritance</w>": 5340,
    "inherited</w>": 5341,
    "inherits</w>": 5342,
    "ining</w>": 5343,
    "init_": 5344,
    "init__</w>": 5345,
    "init_app</w>": 5346,
    "initi": 5347,
    "initial": 5348,
    "initial_": 5349,
    "initializ": 5350,
    "initiate</w>": 5351,
    "inj": 5352,
    "inner</w>": 5353,
    "inner_": 5354,
    "inplace</w>": 5355,
    "input": 5356,
    "input</w>": 5357,
    "input_": 5358,
    "input_dim</w>": 5359,
    "input_dir</w>": 5360,
    "input_dir_path</w>": 5361,
    "input_file</w>": 5362,
    "input_files</w>": 5363,
    "input_shape</w>": 5364,
    "input_string</w>": 5365,
    "inputs</w>": 5366,
    "ins</w>": 5367,
    "insecure</w>": 5368,
    "insensitive</w>": 5369,
    "inser": 5370,
    "insert</w>": 5371,
    "insert_": 5372,
    "inside</w>": 5373,
    "inspect</w>": 5374,
    "inspection</w>": 5375,
    "inspector</w>": 5376,
    "inst</w>": 5377,
    "inst_": 5378,
    "instal": 5379,
    "install": 5380,
    "installation</w>": 5381,
    "instan": 5382,
    "instance": 5383,
    "instance's</w>": 5384,
    "instance</w>": 5385,
    "instance_": 5386,
    "instance_id</w>": 5387,
    "instances</w>": 5388,
    "instanti": 5389,
    "instantiate</w>": 5390,
    "instantiated</w>": 5391,
    "instantiation</w>": 5392,
    "inste": 5393,
    "instead\"</w>": 5394,
    "instead</w>": 5395,
    "institute</w>": 5396,
    "institute_id</w>": 5397,
    "instr": 5398,
    "int": 5399,
    "int16</w>": 5400,
    "int16_t</w>": 5401,
    "int32</w>": 5402,
    "int64</w>": 5403,
    "int8</w>": 5404,
    "int</w>": 5405,
    "int`</w>": 5406,
    "int``</w>": 5407,
    "inte": 5408,
    "integ": 5409,
    "integer</w>": 5410,
    "integer_": 5411,
    "integer_types</w>": 5412,
    "integral</w>": 5413,
    "integrate</w>": 5414,
    "integrated</w>": 5415,
    "integration</w>": 5416,
    "integrator</w>": 5417,
    "integrity</w>": 5418,
    "integrityerror</w>": 5419,
    "inten": 5420,
    "intensities</w>": 5421,
    "intensity</w>": 5422,
    "inter": 5423,
    "intercep": 5424,
    "interface\"</w>": 5425,
    "interface'</w>": 5426,
    "interface</w>": 5427,
    "interface_": 5428,
    "interfaces</w>": 5429,
    "intermedi": 5430,
    "intermediate</w>": 5431,
    "intern": 5432,
    "internal": 5433,
    "internal</w>": 5434,
    "internal_": 5435,
    "internally</w>": 5436,
    "interp": 5437,
    "interp1d</w>": 5438,
    "interpol": 5439,
    "interpolate</w>": 5440,
    "interpolated</w>": 5441,
    "interpolation</w>": 5442,
    "intersect</w>": 5443,
    "intersection</w>": 5444,
    "intersections</w>": 5445,
    "intersects</w>": 5446,
    "interval": 5447,
    "interval</w>": 5448,
    "interval_": 5449,
    "intervals</w>": 5450,
    "into</w>": 5451,
    "intrin": 5452,
    "intrinsic</w>": 5453,
    "intro": 5454,
    "introd": 5455,
    "introduced</w>": 5456,
    "inv": 5457,
    "inv</w>": 5458,
    "inv_": 5459,
    "invalid": 5460,
    "invalid</w>": 5461,
    "invalidparametererror</w>": 5462,
    "inven": 5463,
    "inventor": 5464,
    "inventory</w>": 5465,
    "inver": 5466,
    "inverse</w>": 5467,
    "inverse_": 5468,
    "invocation</w>": 5469,
    "invoi": 5470,
    "invoice</w>": 5471,
    "invoke</w>": 5472,
    "invoked</w>": 5473,
    "invol": 5474,
    "involved</w>": 5475,
    "io": 5476,
    "io</w>": 5477,
    "ioerror</w>": 5478,
    "ip": 5479,
    "ip</w>": 5480,
    "ip_": 5481,
    "ip_addr</w>": 5482,
    "ip_address</w>": 5483,
    "ipedi": 5484,
    "ipv": 5485,
    "ipv4</w>": 5486,
    "ipv6": 5487,
    "ipv6</w>": 5488,
    "ipv6_": 5489,
    "ipy": 5490,
    "ipyclient</w>": 5491,
    "iq</w>": 5492,
    "ir": 5493,
    "ir</w>": 5494,
    "ira</w>": 5495,
    "ird</w>": 5496,
    "irradi": 5497,
    "irradiance</w>": 5498,
    "irsb</w>": 5499,
    "is": 5500,
    "is'</w>": 5501,
    "is1</w>": 5502,
    "is</w>": 5503,
    "is_": 5504,
    "is_active</w>": 5505,
    "is_admin</w>": 5506,
    "is_alive</w>": 5507,
    "is_authenticated</w>": 5508,
    "is_config</w>": 5509,
    "is_container</w>": 5510,
    "is_dir</w>": 5511,
    "is_empty</w>": 5512,
    "is_public</w>": 5513,
    "is_string</w>": 5514,
    "is_training</w>": 5515,
    "is_valid</w>": 5516,
    "is_valid_": 5517,
    "is`</w>": 5518,
    "ise</w>": 5519,
    "ise_": 5520,
    "isen": 5521,
    "isenabledfor</w>": 5522,
    "isfile</w>": 5523,
    "isfinite</w>": 5524,
    "isin": 5525,
    "isinstance</w>": 5526,
    "iskiterror</w>": 5527,
    "isn": 5528,
    "isn't</w>": 5529,
    "iso": 5530,
    "iso8601</w>": 5531,
    "isscalar</w>": 5532,
    "issparse</w>": 5533,
    "issubclass</w>": 5534,
    "issubset</w>": 5535,
    "issue</w>": 5536,
    "issue_": 5537,
    "issued</w>": 5538,
    "issuer</w>": 5539,
    "issues</w>": 5540,
    "ist</w>": 5541,
    "it": 5542,
    "it'll</w>": 5543,
    "it's</w>": 5544,
    "it</w>": 5545,
    "itable</w>": 5546,
    "ite": 5547,
    "item</w>": 5548,
    "items</w>": 5549,
    "iter": 5550,
    "iter</w>": 5551,
    "iter__": 5552,
    "iterable": 5553,
    "iterable</w>": 5554,
    "iterable`</w>": 5555,
    "iterati": 5556,
    "iterations</w>": 5557,
    "iteratively</w>": 5558,
    "iterkeys</w>": 5559,
    "itertools</w>": 5560,
    "itervalues</w>": 5561,
    "ith": 5562,
    "ither</w>": 5563,
    "iti": 5564,
    "itter</w>": 5565,
    "iv</w>": 5566,
    "ivar</w>": 5567,
    "ix": 5568,
    "ix</w>": 5569,
    "ixin</w>": 5570,
    "iy</w>": 5571,
    "iz</w>": 5572,
    "izip</w>": 5573,
    "j": 5574,
    "j'</w>": 5575,
    "j1</w>": 5576,
    "j2</w>": 5577,
    "j</w>": 5578,
    "j_": 5579,
    "ja</w>": 5580,
    "jac</w>": 5581,
    "jacobi": 5582,
    "jacobian</w>": 5583,
    "jail</w>": 5584,
    "jan</w>": 5585,
    "janu": 5586,
    "january</w>": 5587,
    "jar</w>": 5588,
    "jav": 5589,
    "java_": 5590,
    "javabridge</w>": 5591,
    "javascript</w>": 5592,
    "jb</w>": 5593,
    "jbody</w>": 5594,
    "jc</w>": 5595,
    "jcvi</w>": 5596,
    "jd</w>": 5597,
    "jec": 5598,
    "ject'</w>": 5599,
    "ject</w>": 5600,
    "ject_": 5601,
    "jected</w>": 5602,
    "jectory</w>": 5603,
    "jects</w>": 5604,
    "jen": 5605,
    "jenkins</w>": 5606,
    "ji</w>": 5607,
    "jid</w>": 5608,
    "jinj": 5609,
    "jinja2</w>": 5610,
    "jinja</w>": 5611,
    "jira</w>": 5612,
    "jitter</w>": 5613,
    "jj</w>": 5614,
    "jlink": 5615,
    "jo": 5616,
    "job": 5617,
    "job_": 5618,
    "job_details</w>": 5619,
    "job_id</w>": 5620,
    "job_ids</w>": 5621,
    "jobs</w>": 5622,
    "jobstore</w>": 5623,
    "john</w>": 5624,
    "join": 5625,
    "join</w>": 5626,
    "join_": 5627,
    "joint</w>": 5628,
    "jor</w>": 5629,
    "jor_": 5630,
    "journ": 5631,
    "journal</w>": 5632,
    "jp</w>": 5633,
    "jpeg</w>": 5634,
    "jpg'</w>": 5635,
    "jpg</w>": 5636,
    "jpl</w>": 5637,
    "jquery</w>": 5638,
    "jr</w>": 5639,
    "js\"</w>": 5640,
    "js'</w>": 5641,
    "js</w>": 5642,
    "js_": 5643,
    "json": 5644,
    "json\"</w>": 5645,
    "json</w>": 5646,
    "json_": 5647,
    "json_obj</w>": 5648,
    "json_string</w>": 5649,
    "jsonclient": 5650,
    "jsonclientvalidated</w>": 5651,
    "jsoni": 5652,
    "jsonify</w>": 5653,
    "jsonschema</w>": 5654,
    "ju": 5655,
    "juli": 5656,
    "julian</w>": 5657,
    "jupy": 5658,
    "jupyter</w>": 5659,
    "just</w>": 5660,
    "jvm</w>": 5661,
    "jw": 5662,
    "jwt</w>": 5663,
    "k": 5664,
    "k\"</w>": 5665,
    "k'</w>": 5666,
    "k0</w>": 5667,
    "k1</w>": 5668,
    "k2</w>": 5669,
    "k3</w>": 5670,
    "k4</w>": 5671,
    "k8": 5672,
    "k</w>": 5673,
    "k_": 5674,
    "k`</w>": 5675,
    "k``</w>": 5676,
    "ka</w>": 5677,
    "ka_": 5678,
    "kaf": 5679,
    "kafk": 5680,
    "kappa</w>": 5681,
    "kargs</w>": 5682,
    "kb</w>": 5683,
    "kc</w>": 5684,
    "kd</w>": 5685,
    "kde</w>": 5686,
    "kdims</w>": 5687,
    "ke": 5688,
    "ke</w>": 5689,
    "ke_": 5690,
    "keep</w>": 5691,
    "keep_": 5692,
    "keeping</w>": 5693,
    "kel": 5694,
    "keli": 5695,
    "kelihoo": 5696,
    "kelvin</w>": 5697,
    "kely</w>": 5698,
    "ken</w>": 5699,
    "ker</w>": 5700,
    "kernel": 5701,
    "kernel32</w>": 5702,
    "kes</w>": 5703,
    "key": 5704,
    "key</w>": 5705,
    "key_": 5706,
    "key_id</w>": 5707,
    "key_path</w>": 5708,
    "key_prefix</w>": 5709,
    "key`</w>": 5710,
    "key``</w>": 5711,
    "keybo": 5712,
    "keyboardinterrupt</w>": 5713,
    "keychain</w>": 5714,
    "keyfile</w>": 5715,
    "keyname</w>": 5716,
    "keyring</w>": 5717,
    "keys'</w>": 5718,
    "keys</w>": 5719,
    "keys_": 5720,
    "keyspace</w>": 5721,
    "keystone</w>": 5722,
    "keystore</w>": 5723,
    "keyword</w>": 5724,
    "keyword_": 5725,
    "keywords</w>": 5726,
    "kg</w>": 5727,
    "ki": 5728,
    "kil": 5729,
    "kind</w>": 5730,
    "king</w>": 5731,
    "kins</w>": 5732,
    "kit": 5733,
    "kit</w>": 5734,
    "kit_": 5735,
    "kitchen</w>": 5736,
    "kj</w>": 5737,
    "kk": 5738,
    "kk</w>": 5739,
    "kl": 5740,
    "klass</w>": 5741,
    "kline</w>": 5742,
    "km</w>": 5743,
    "kmax</w>": 5744,
    "kmip</w>": 5745,
    "kmip_": 5746,
    "kmip_version</w>": 5747,
    "kmipversion</w>": 5748,
    "kms</w>": 5749,
    "kn": 5750,
    "kno": 5751,
    "know": 5752,
    "knowledge</w>": 5753,
    "knowledge_base</w>": 5754,
    "known</w>": 5755,
    "known_": 5756,
    "ko": 5757,
    "ko</w>": 5758,
    "kp": 5759,
    "kpc_": 5760,
    "kpc_per_": 5761,
    "kpc_per_arcsec</w>": 5762,
    "ks</w>": 5763,
    "ks_": 5764,
    "ksize</w>": 5765,
    "kt</w>": 5766,
    "ku": 5767,
    "kubernetes</w>": 5768,
    "kv": 5769,
    "kv</w>": 5770,
    "kvstore</w>": 5771,
    "kw": 5772,
    "kwargs</w>": 5773,
    "kwds</w>": 5774,
    "kx</w>": 5775,
    "ky</w>": 5776,
    "kze": 5777,
    "l": 5778,
    "l\"</w>": 5779,
    "l'</w>": 5780,
    "l0</w>": 5781,
    "l1</w>": 5782,
    "l2": 5783,
    "l2</w>": 5784,
    "l4": 5785,
    "l6": 5786,
    "l</w>": 5787,
    "l_": 5788,
    "la</w>": 5789,
    "lab": 5790,
    "lab'</w>": 5791,
    "lab</w>": 5792,
    "label": 5793,
    "label</w>": 5794,
    "labels</w>": 5795,
    "labelsize</w>": 5796,
    "lack</w>": 5797,
    "lag</w>": 5798,
    "lags</w>": 5799,
    "lal": 5800,
    "lal</w>": 5801,
    "lam": 5802,
    "lambd": 5803,
    "lambda</w>": 5804,
    "lan": 5805,
    "lane</w>": 5806,
    "lang": 5807,
    "langu": 5808,
    "language</w>": 5809,
    "language_": 5810,
    "language_code</w>": 5811,
    "languages</w>": 5812,
    "laplaci": 5813,
    "laplacian</w>": 5814,
    "large'</w>": 5815,
    "large</w>": 5816,
    "larger</w>": 5817,
    "largest</w>": 5818,
    "las</w>": 5819,
    "last": 5820,
    "last</w>": 5821,
    "last_": 5822,
    "last_modified</w>": 5823,
    "lat": 5824,
    "lat1</w>": 5825,
    "lat</w>": 5826,
    "lat_": 5827,
    "laten": 5828,
    "latent</w>": 5829,
    "latent_": 5830,
    "latent_variables</w>": 5831,
    "latents_": 5832,
    "later</w>": 5833,
    "latest</w>": 5834,
    "latest_": 5835,
    "latex</w>": 5836,
    "latitu": 5837,
    "latitude</w>": 5838,
    "lats</w>": 5839,
    "latter</w>": 5840,
    "lattice</w>": 5841,
    "laun": 5842,
    "launch</w>": 5843,
    "launched</w>": 5844,
    "law</w>": 5845,
    "lay": 5846,
    "laz": 5847,
    "lazily</w>": 5848,
    "lazy</w>": 5849,
    "lb": 5850,
    "lb</w>": 5851,
    "lbl</w>": 5852,
    "lc</w>": 5853,
    "lcdict</w>": 5854,
    "lcformat</w>": 5855,
    "ld": 5856,
    "ld</w>": 5857,
    "le": 5858,
    "le'</w>": 5859,
    "le</w>": 5860,
    "le_": 5861,
    "lead</w>": 5862,
    "leader": 5863,
    "leader</w>": 5864,
    "leading</w>": 5865,
    "leads</w>": 5866,
    "leaf</w>": 5867,
    "lear": 5868,
    "learning_": 5869,
    "learning_rate</w>": 5870,
    "lease</w>": 5871,
    "least</w>": 5872,
    "leave</w>": 5873,
    "leaves</w>": 5874,
    "leaving</w>": 5875,
    "lec": 5876,
    "led": 5877,
    "ledge</w>": 5878,
    "ledge_base</w>": 5879,
    "ledger</w>": 5880,
    "left": 5881,
    "left</w>": 5882,
    "left_": 5883,
    "leg": 5884,
    "legacy</w>": 5885,
    "len": 5886,
    "leng": 5887,
    "length": 5888,
    "length\"</w>": 5889,
    "length'</w>": 5890,
    "length</w>": 5891,
    "length_": 5892,
    "lengths</w>": 5893,
    "ler</w>": 5894,
    "lers</w>": 5895,
    "les</w>": 5896,
    "less</w>": 5897,
    "let's</w>": 5898,
    "letter</w>": 5899,
    "letters</w>": 5900,
    "lev": 5901,
    "level": 5902,
    "level</w>": 5903,
    "levelname</w>": 5904,
    "lex": 5905,
    "lexer</w>": 5906,
    "lf</w>": 5907,
    "lg": 5908,
    "lh</w>": 5909,
    "lhs</w>": 5910,
    "li": 5911,
    "lib": 5912,
    "lib</w>": 5913,
    "libcrypto</w>": 5914,
    "library</w>": 5915,
    "library_": 5916,
    "libro": 5917,
    "librosa</w>": 5918,
    "libspice</w>": 5919,
    "libvirt</w>": 5920,
    "libxml2": 5921,
    "libxml2mod</w>": 5922,
    "licen": 5923,
    "license</w>": 5924,
    "licenses</w>": 5925,
    "lig": 5926,
    "ligand</w>": 5927,
    "like</w>": 5928,
    "likelihoo": 5929,
    "likelihood</w>": 5930,
    "likelihoods</w>": 5931,
    "likely</w>": 5932,
    "lim</w>": 5933,
    "lin": 5934,
    "linalg</w>": 5935,
    "linder</w>": 5936,
    "lindrical</w>": 5937,
    "line": 5938,
    "line</w>": 5939,
    "line_": 5940,
    "line_counter</w>": 5941,
    "linear</w>": 5942,
    "lines</w>": 5943,
    "link": 5944,
    "link</w>": 5945,
    "link_": 5946,
    "linkage</w>": 5947,
    "links</w>": 5948,
    "linspace</w>": 5949,
    "lint</w>": 5950,
    "linux</w>": 5951,
    "lip": 5952,
    "liquid</w>": 5953,
    "list</w>": 5954,
    "list_": 5955,
    "list_of_": 5956,
    "list_of_w": 5957,
    "list_of_wvfeatures</w>": 5958,
    "list`</w>": 5959,
    "literal_": 5960,
    "literal_eval</w>": 5961,
    "live</w>": 5962,
    "live_": 5963,
    "ljust</w>": 5964,
    "ll": 5965,
    "lm": 5966,
    "lmax</w>": 5967,
    "ln": 5968,
    "ln</w>": 5969,
    "lng</w>": 5970,
    "lo": 5971,
    "load": 5972,
    "load'</w>": 5973,
    "load</w>": 5974,
    "load_": 5975,
    "loaded</w>": 5976,
    "loader</w>": 5977,
    "loading</w>": 5978,
    "loads</w>": 5979,
    "lob": 5980,
    "loc": 5981,
    "local": 5982,
    "localhost</w>": 5983,
    "localpath</w>": 5984,
    "localtime</w>": 5985,
    "log": 5986,
    "log10</w>": 5987,
    "log</w>": 5988,
    "log_": 5989,
    "log_dir</w>": 5990,
    "log_file</w>": 5991,
    "log_level</w>": 5992,
    "logdir</w>": 5993,
    "logfile</w>": 5994,
    "logg</w>": 5995,
    "logged</w>": 5996,
    "logger</w>": 5997,
    "logger_": 5998,
    "logger_name</w>": 5999,
    "loggers</w>": 6000,
    "logging</w>": 6001,
    "logi": 6002,
    "logic</w>": 6003,
    "logical</w>": 6004,
    "logical_": 6005,
    "logical_and</w>": 6006,
    "lon": 6007,
    "long</w>": 6008,
    "long_": 6009,
    "longer</w>": 6010,
    "longitu": 6011,
    "longitude</w>": 6012,
    "loo": 6013,
    "look": 6014,
    "lookup</w>": 6015,
    "lookup_": 6016,
    "loop</w>": 6017,
    "loop_": 6018,
    "loops</w>": 6019,
    "looseversion</w>": 6020,
    "los": 6021,
    "loss</w>": 6022,
    "losses</w>": 6023,
    "lot</w>": 6024,
    "lower": 6025,
    "lower</w>": 6026,
    "lowercase</w>": 6027,
    "lp</w>": 6028,
    "lr</w>": 6029,
    "lr_": 6030,
    "ls</w>": 6031,
    "lsb</w>": 6032,
    "lsp</w>": 6033,
    "lst</w>": 6034,
    "lstm</w>": 6035,
    "lstrip</w>": 6036,
    "lt</w>": 6037,
    "lu": 6038,
    "lu</w>": 6039,
    "lv": 6040,
    "lv</w>": 6041,
    "lv_": 6042,
    "lvl</w>": 6043,
    "lw</w>": 6044,
    "lx": 6045,
    "lxml</w>": 6046,
    "ly": 6047,
    "ly</w>": 6048,
    "ly_": 6049,
    "lz": 6050,
    "lz</w>": 6051,
    "m": 6052,
    "m\"</w>": 6053,
    "m'</w>": 6054,
    "m0</w>": 6055,
    "m1</w>": 6056,
    "m2": 6057,
    "m2</w>": 6058,
    "m3": 6059,
    "m3</w>": 6060,
    "m</w>": 6061,
    "m_": 6062,
    "m_funcs</w>": 6063,
    "m_id</w>": 6064,
    "m`</w>": 6065,
    "ma": 6066,
    "ma</w>": 6067,
    "ma_": 6068,
    "mac</w>": 6069,
    "mac_": 6070,
    "mac_address</w>": 6071,
    "machine</w>": 6072,
    "mag": 6073,
    "magcol</w>": 6074,
    "magcols</w>": 6075,
    "magi": 6076,
    "magic</w>": 6077,
    "magic_": 6078,
    "magnitu": 6079,
    "magnitude</w>": 6080,
    "mail": 6081,
    "mail</w>": 6082,
    "mailbox</w>": 6083,
    "main": 6084,
    "main'</w>": 6085,
    "main</w>": 6086,
    "main_": 6087,
    "mains</w>": 6088,
    "maintenan": 6089,
    "maintenance_db</w>": 6090,
    "major</w>": 6091,
    "major_": 6092,
    "make</w>": 6093,
    "make_": 6094,
    "makes</w>": 6095,
    "mal": 6096,
    "mal</w>": 6097,
    "malformed</w>": 6098,
    "maliz": 6099,
    "maly</w>": 6100,
    "man": 6101,
    "manage</w>": 6102,
    "managed</w>": 6103,
    "managed_": 6104,
    "management</w>": 6105,
    "manager": 6106,
    "manager</w>": 6107,
    "managers</w>": 6108,
    "mand": 6109,
    "mand</w>": 6110,
    "mand_": 6111,
    "mands</w>": 6112,
    "mani": 6113,
    "manife": 6114,
    "manu": 6115,
    "manually</w>": 6116,
    "map</w>": 6117,
    "mapped</w>": 6118,
    "mappin": 6119,
    "mappings</w>": 6120,
    "mar": 6121,
    "margin": 6122,
    "marginal</w>": 6123,
    "mark": 6124,
    "mark</w>": 6125,
    "mark_": 6126,
    "mark_safe</w>": 6127,
    "markdown</w>": 6128,
    "marker": 6129,
    "markersize</w>": 6130,
    "marko": 6131,
    "markov</w>": 6132,
    "markup</w>": 6133,
    "marshal</w>": 6134,
    "mary</w>": 6135,
    "mary_": 6136,
    "mas": 6137,
    "mask</w>": 6138,
    "mass2</w>": 6139,
    "mat": 6140,
    "mat</w>": 6141,
    "match": 6142,
    "match</w>": 6143,
    "matched</w>": 6144,
    "materi": 6145,
    "material</w>": 6146,
    "materials</w>": 6147,
    "matgen</w>": 6148,
    "math": 6149,
    "mathj": 6150,
    "matic</w>": 6151,
    "matically</w>": 6152,
    "mation</w>": 6153,
    "matmul</w>": 6154,
    "matplotlib</w>": 6155,
    "matri": 6156,
    "matrices</w>": 6157,
    "matrix</w>": 6158,
    "matrix_": 6159,
    "mav": 6160,
    "mavlink1</w>": 6161,
    "mavutil</w>": 6162,
    "max": 6163,
    "max</w>": 6164,
    "max_": 6165,
    "max_age</w>": 6166,
    "max_attempts</w>": 6167,
    "max_count</w>": 6168,
    "max_depth</w>": 6169,
    "max_distance</w>": 6170,
    "max_items</w>": 6171,
    "max_iter</w>": 6172,
    "max_iterations</w>": 6173,
    "max_length</w>": 6174,
    "max_size</w>": 6175,
    "max_val</w>": 6176,
    "max_value</w>": 6177,
    "max_y</w>": 6178,
    "maxdepth</w>": 6179,
    "maximal</w>": 6180,
    "maximi": 6181,
    "maximize</w>": 6182,
    "maximum</w>": 6183,
    "maximum_": 6184,
    "maxiter</w>": 6185,
    "maxsize</w>": 6186,
    "maxval</w>": 6187,
    "may": 6188,
    "maybe</w>": 6189,
    "maybe_": 6190,
    "mb": 6191,
    "mb</w>": 6192,
    "mc</w>": 6193,
    "mc_": 6194,
    "mcmc</w>": 6195,
    "md": 6196,
    "md5": 6197,
    "md5</w>": 6198,
    "me": 6199,
    "me'</w>": 6200,
    "me</w>": 6201,
    "me_": 6202,
    "mean": 6203,
    "mean</w>": 6204,
    "mean_": 6205,
    "meaning": 6206,
    "meaning</w>": 6207,
    "meaningful</w>": 6208,
    "means</w>": 6209,
    "meas_": 6210,
    "measrec</w>": 6211,
    "measure</w>": 6212,
    "measured</w>": 6213,
    "measuremen": 6214,
    "measurement</w>": 6215,
    "measurements</w>": 6216,
    "measurements_df</w>": 6217,
    "measures</w>": 6218,
    "med</w>": 6219,
    "medi": 6220,
    "media</w>": 6221,
    "media_": 6222,
    "median</w>": 6223,
    "mediates</w>": 6224,
    "mediator</w>": 6225,
    "medium</w>": 6226,
    "meg": 6227,
    "mem": 6228,
    "member": 6229,
    "member</w>": 6230,
    "members</w>": 6231,
    "membership</w>": 6232,
    "memcache</w>": 6233,
    "memo": 6234,
    "memoi": 6235,
    "memoize</w>": 6236,
    "memor": 6237,
    "memory": 6238,
    "memory</w>": 6239,
    "memory_": 6240,
    "men": 6241,
    "menage</w>": 6242,
    "ment'</w>": 6243,
    "ment</w>": 6244,
    "ment_": 6245,
    "mention</w>": 6246,
    "mentioned</w>": 6247,
    "mentions</w>": 6248,
    "ments</w>": 6249,
    "menu</w>": 6250,
    "menu_": 6251,
    "mer</w>": 6252,
    "merge_": 6253,
    "mes": 6254,
    "mes</w>": 6255,
    "messa": 6256,
    "message": 6257,
    "message</w>": 6258,
    "message_": 6259,
    "message_id</w>": 6260,
    "message`</w>": 6261,
    "messagebox</w>": 6262,
    "meta</w>": 6263,
    "meta_": 6264,
    "metadata</w>": 6265,
    "metadata_": 6266,
    "metavar</w>": 6267,
    "meter</w>": 6268,
    "meters</w>": 6269,
    "meth": 6270,
    "meth</w>": 6271,
    "methcodes</w>": 6272,
    "metho": 6273,
    "method": 6274,
    "method</w>": 6275,
    "method_": 6276,
    "method_configs</w>": 6277,
    "method_name</w>": 6278,
    "methods</w>": 6279,
    "metri": 6280,
    "metric</w>": 6281,
    "metric_": 6282,
    "metrics</w>": 6283,
    "metrics_": 6284,
    "mf": 6285,
    "mf</w>": 6286,
    "mg": 6287,
    "mgmt</w>": 6288,
    "mgr</w>": 6289,
    "mh": 6290,
    "mi": 6291,
    "mial</w>": 6292,
    "mials</w>": 6293,
    "mib</w>": 6294,
    "mic</w>": 6295,
    "micro": 6296,
    "mid": 6297,
    "midd": 6298,
    "middle": 6299,
    "middleware</w>": 6300,
    "midpoint</w>": 6301,
    "mig": 6302,
    "migrate</w>": 6303,
    "migration</w>": 6304,
    "migrations</w>": 6305,
    "mime": 6306,
    "mimetype</w>": 6307,
    "min": 6308,
    "min</w>": 6309,
    "min_": 6310,
    "min_dist</w>": 6311,
    "min_val</w>": 6312,
    "minator</w>": 6313,
    "minimi": 6314,
    "minimize</w>": 6315,
    "minion</w>": 6316,
    "minus</w>": 6317,
    "minute</w>": 6318,
    "minutes</w>": 6319,
    "minval</w>": 6320,
    "mip</w>": 6321,
    "mip_": 6322,
    "mip_version</w>": 6323,
    "mipversion</w>": 6324,
    "mir_": 6325,
    "mir_eval</w>": 6326,
    "mis": 6327,
    "mise</w>": 6328,
    "misses</w>": 6329,
    "missing</w>": 6330,
    "mission</w>": 6331,
    "mission_": 6332,
    "missions</w>": 6333,
    "mit</w>": 6334,
    "mit_": 6335,
    "mitted</w>": 6336,
    "mix": 6337,
    "mixed</w>": 6338,
    "mixin</w>": 6339,
    "mixing</w>": 6340,
    "mixture</w>": 6341,
    "mj": 6342,
    "mk": 6343,
    "mkd": 6344,
    "mkdir</w>": 6345,
    "mkdtemp</w>": 6346,
    "mkstemp</w>": 6347,
    "mktime</w>": 6348,
    "ml": 6349,
    "ml</w>": 6350,
    "ml_": 6351,
    "mlperf_log</w>": 6352,
    "mly</w>": 6353,
    "mm": 6354,
    "mm</w>": 6355,
    "mmmm": 6356,
    "mn": 6357,
    "mn</w>": 6358,
    "mo": 6359,
    "mod": 6360,
    "mod</w>": 6361,
    "modality": 6362,
    "modalitytype</w>": 6363,
    "mode": 6364,
    "mode</w>": 6365,
    "mode`</w>": 6366,
    "model": 6367,
    "model's</w>": 6368,
    "model</w>": 6369,
    "model_": 6370,
    "model_class</w>": 6371,
    "model_dir</w>": 6372,
    "model_name</w>": 6373,
    "model`</w>": 6374,
    "modi": 6375,
    "modifi": 6376,
    "modification</w>": 6377,
    "modifications</w>": 6378,
    "modified</w>": 6379,
    "modify</w>": 6380,
    "modul": 6381,
    "module": 6382,
    "module's</w>": 6383,
    "module</w>": 6384,
    "module_": 6385,
    "module__</w>": 6386,
    "module_dir</w>": 6387,
    "module_name</w>": 6388,
    "module_path</w>": 6389,
    "modules</w>": 6390,
    "modulus</w>": 6391,
    "mol": 6392,
    "molecul": 6393,
    "molecular</w>": 6394,
    "moltype</w>": 6395,
    "momen": 6396,
    "moment</w>": 6397,
    "momentum</w>": 6398,
    "mon": 6399,
    "mon'</w>": 6400,
    "mon</w>": 6401,
    "mon_": 6402,
    "mongo": 6403,
    "mongo</w>": 6404,
    "mongodb</w>": 6405,
    "monkey</w>": 6406,
    "month": 6407,
    "month</w>": 6408,
    "months</w>": 6409,
    "more</w>": 6410,
    "most</w>": 6411,
    "most_": 6412,
    "most_common</w>": 6413,
    "mostly</w>": 6414,
    "moti": 6415,
    "motifs</w>": 6416,
    "motor</w>": 6417,
    "moun": 6418,
    "mount_": 6419,
    "mount_point</w>": 6420,
    "mounted</w>": 6421,
    "mountpoint</w>": 6422,
    "mounts</w>": 6423,
    "mouse</w>": 6424,
    "mouse_": 6425,
    "move": 6426,
    "move</w>": 6427,
    "move_": 6428,
    "moved</w>": 6429,
    "moves</w>": 6430,
    "movie</w>": 6431,
    "moving</w>": 6432,
    "moving_": 6433,
    "mp": 6434,
    "mp</w>": 6435,
    "mp_": 6436,
    "mpl": 6437,
    "mpls'</w>": 6438,
    "mpor": 6439,
    "mpp</w>": 6440,
    "mq": 6441,
    "mq</w>": 6442,
    "mq_": 6443,
    "mr": 6444,
    "ms": 6445,
    "ms</w>": 6446,
    "msg": 6447,
    "msg</w>": 6448,
    "msg_": 6449,
    "mst_": 6450,
    "mstate</w>": 6451,
    "mt": 6452,
    "mt</w>": 6453,
    "mt_": 6454,
    "mtf</w>": 6455,
    "mth</w>": 6456,
    "mtime</w>": 6457,
    "mtype</w>": 6458,
    "mu": 6459,
    "mu</w>": 6460,
    "mul": 6461,
    "mul</w>": 6462,
    "multi": 6463,
    "multi</w>": 6464,
    "multiindex</w>": 6465,
    "multiple</w>": 6466,
    "multipli": 6467,
    "multiplicity</w>": 6468,
    "multivari": 6469,
    "muni": 6470,
    "must</w>": 6471,
    "mux</w>": 6472,
    "mv</w>": 6473,
    "mv_": 6474,
    "mw": 6475,
    "mw</w>": 6476,
    "mx": 6477,
    "mx</w>": 6478,
    "mxnet</w>": 6479,
    "my": 6480,
    "my</w>": 6481,
    "my_": 6482,
    "my_osid_": 6483,
    "my_osid_object_form</w>": 6484,
    "myclass</w>": 6485,
    "myminion</w>": 6486,
    "mysql</w>": 6487,
    "mysql_": 6488,
    "mz": 6489,
    "n": 6490,
    "n\"</w>": 6491,
    "n'</w>": 6492,
    "n0</w>": 6493,
    "n1</w>": 6494,
    "n2</w>": 6495,
    "n</w>": 6496,
    "n_": 6497,
    "n_channels</w>": 6498,
    "n_classes</w>": 6499,
    "n_clusters</w>": 6500,
    "n_cols</w>": 6501,
    "n_components</w>": 6502,
    "n_features</w>": 6503,
    "n_iter</w>": 6504,
    "n_s</w>": 6505,
    "n_samples</w>": 6506,
    "n_states</w>": 6507,
    "n`</w>": 6508,
    "na</w>": 6509,
    "naif</w>": 6510,
    "naive</w>": 6511,
    "nam": 6512,
    "name": 6513,
    "name\"\"\"</w>": 6514,
    "name\"</w>": 6515,
    "name'</w>": 6516,
    "name</w>": 6517,
    "name_": 6518,
    "name__</w>": 6519,
    "name_scope</w>": 6520,
    "name`</w>": 6521,
    "name``</w>": 6522,
    "named": 6523,
    "namedtemporaryfile</w>": 6524,
    "namedtuple</w>": 6525,
    "nameerror</w>": 6526,
    "nameop</w>": 6527,
    "names</w>": 6528,
    "nami": 6529,
    "nan": 6530,
    "nan</w>": 6531,
    "nanmean</w>": 6532,
    "napal": 6533,
    "nargs</w>": 6534,
    "narrow</w>": 6535,
    "nasa</w>": 6536,
    "nat</w>": 6537,
    "nati": 6538,
    "native</w>": 6539,
    "nativestring</w>": 6540,
    "natural</w>": 6541,
    "nature</w>": 6542,
    "navig": 6543,
    "navigation</w>": 6544,
    "nax": 6545,
    "naxis1</w>": 6546,
    "nb": 6547,
    "nb</w>": 6548,
    "nb_": 6549,
    "nb_classes</w>": 6550,
    "nc</w>": 6551,
    "ncbi</w>": 6552,
    "nchan</w>": 6553,
    "ncol</w>": 6554,
    "ncols</w>": 6555,
    "ncpus</w>": 6556,
    "nd": 6557,
    "nd</w>": 6558,
    "ndarray</w>": 6559,
    "ne": 6560,
    "nec": 6561,
    "neces": 6562,
    "necessarily</w>": 6563,
    "necessary</w>": 6564,
    "ned</w>": 6565,
    "need</w>": 6566,
    "need_": 6567,
    "needed</w>": 6568,
    "needs</w>": 6569,
    "needs_": 6570,
    "neg": 6571,
    "negati": 6572,
    "negative</w>": 6573,
    "nego": 6574,
    "negoti": 6575,
    "neigh": 6576,
    "neighbo": 6577,
    "neighbor</w>": 6578,
    "neighbors</w>": 6579,
    "nel": 6580,
    "nel</w>": 6581,
    "nel_": 6582,
    "nels</w>": 6583,
    "neo</w>": 6584,
    "ner": 6585,
    "ner</w>": 6586,
    "ner_": 6587,
    "ness</w>": 6588,
    "nested</w>": 6589,
    "net": 6590,
    "net</w>": 6591,
    "netcdf": 6592,
    "netcdf</w>": 6593,
    "netmask</w>": 6594,
    "networ": 6595,
    "network": 6596,
    "networkapi</w>": 6597,
    "networkx</w>": 6598,
    "neural</w>": 6599,
    "neuro": 6600,
    "neutron</w>": 6601,
    "new": 6602,
    "new</w>": 6603,
    "new_": 6604,
    "new_attrs</w>": 6605,
    "new_item</w>": 6606,
    "new_pos</w>": 6607,
    "new_shape</w>": 6608,
    "new_val</w>": 6609,
    "new_value</w>": 6610,
    "newdata</w>": 6611,
    "newline</w>": 6612,
    "newlines</w>": 6613,
    "newly</w>": 6614,
    "newname</w>": 6615,
    "newnode</w>": 6616,
    "newpath</w>": 6617,
    "newval</w>": 6618,
    "newvalue</w>": 6619,
    "nex": 6620,
    "next</w>": 6621,
    "next_": 6622,
    "next_page</w>": 6623,
    "nexus</w>": 6624,
    "nf</w>": 6625,
    "nfft</w>": 6626,
    "ng": 6627,
    "ng</w>": 6628,
    "nh</w>": 6629,
    "ni": 6630,
    "nice</w>": 6631,
    "nick": 6632,
    "nick</w>": 6633,
    "nickname</w>": 6634,
    "nin": 6635,
    "ning</w>": 6636,
    "nj</w>": 6637,
    "nk</w>": 6638,
    "nl": 6639,
    "nltk</w>": 6640,
    "nm</w>": 6641,
    "nmax</w>": 6642,
    "nn": 6643,
    "nn</w>": 6644,
    "no": 6645,
    "no'</w>": 6646,
    "no</w>": 6647,
    "noaccess</w>": 6648,
    "nodata</w>": 6649,
    "node": 6650,
    "node's</w>": 6651,
    "node</w>": 6652,
    "node_": 6653,
    "node_id</w>": 6654,
    "nodes</w>": 6655,
    "noinspection</w>": 6656,
    "noise</w>": 6657,
    "noise_": 6658,
    "nomin": 6659,
    "nominal</w>": 6660,
    "non": 6661,
    "none": 6662,
    "none</w>": 6663,
    "none`</w>": 6664,
    "none``</w>": 6665,
    "nonzero</w>": 6666,
    "noqa</w>": 6667,
    "nor": 6668,
    "nore</w>": 6669,
    "nore_": 6670,
    "nored</w>": 6671,
    "norm</w>": 6672,
    "normal</w>": 6673,
    "normaliz": 6674,
    "nos</w>": 6675,
    "not": 6676,
    "not</w>": 6677,
    "not_": 6678,
    "note": 6679,
    "note</w>": 6680,
    "notebook</w>": 6681,
    "notes</w>": 6682,
    "notfound</w>": 6683,
    "noti": 6684,
    "notifi": 6685,
    "notification</w>": 6686,
    "notification_": 6687,
    "notifications</w>": 6688,
    "notify</w>": 6689,
    "notimplemen": 6690,
    "notimplementederror</w>": 6691,
    "notnull</w>": 6692,
    "noun</w>": 6693,
    "nov": 6694,
    "nova</w>": 6695,
    "now</w>": 6696,
    "np": 6697,
    "np</w>": 6698,
    "nr</w>": 6699,
    "nr_": 6700,
    "nrm</w>": 6701,
    "nrow</w>": 6702,
    "nrows</w>": 6703,
    "ns</w>": 6704,
    "ns_": 6705,
    "nsamples</w>": 6706,
    "nside</w>": 6707,
    "nsigma</w>": 6708,
    "nsmap</w>": 6709,
    "nsrc</w>": 6710,
    "nsteps</w>": 6711,
    "nt</w>": 6712,
    "nth</w>": 6713,
    "ntp</w>": 6714,
    "nts</w>": 6715,
    "nu": 6716,
    "nu</w>": 6717,
    "nucleo": 6718,
    "nucleotide</w>": 6719,
    "nucleotides</w>": 6720,
    "nul": 6721,
    "null": 6722,
    "null</w>": 6723,
    "nullable</w>": 6724,
    "nullargument</w>": 6725,
    "num": 6726,
    "num_": 6727,
    "num_classes</w>": 6728,
    "num_cores</w>": 6729,
    "num_heads</w>": 6730,
    "num_int</w>": 6731,
    "num_points</w>": 6732,
    "num_samples</w>": 6733,
    "num_steps</w>": 6734,
    "number": 6735,
    "number'</w>": 6736,
    "number</w>": 6737,
    "number_": 6738,
    "number_of_": 6739,
    "numbers</w>": 6740,
    "numeri": 6741,
    "numeric</w>": 6742,
    "numerical</w>": 6743,
    "nv</w>": 6744,
    "nvml_": 6745,
    "nw</w>": 6746,
    "nx": 6747,
    "nx</w>": 6748,
    "ny": 6749,
    "ny</w>": 6750,
    "nz": 6751,
    "nz</w>": 6752,
    "o": 6753,
    "o\"</w>": 6754,
    "o'</w>": 6755,
    "o1</w>": 6756,
    "o2</w>": 6757,
    "o</w>": 6758,
    "o_": 6759,
    "oauth2": 6760,
    "oauth2</w>": 6761,
    "oauth</w>": 6762,
    "oauth_": 6763,
    "ob": 6764,
    "obj": 6765,
    "obj</w>": 6766,
    "obj_": 6767,
    "objec": 6768,
    "object</w>": 6769,
    "object_": 6770,
    "object_form</w>": 6771,
    "objecti": 6772,
    "objective</w>": 6773,
    "objective_": 6774,
    "objects</w>": 6775,
    "objtype</w>": 6776,
    "obs_": 6777,
    "obser": 6778,
    "observ": 6779,
    "observable</w>": 6780,
    "observation</w>": 6781,
    "observation_": 6782,
    "observations</w>": 6783,
    "obspy</w>": 6784,
    "obtain</w>": 6785,
    "obvio": 6786,
    "obviously</w>": 6787,
    "oc": 6788,
    "occur": 6789,
    "occurred</w>": 6790,
    "occurren": 6791,
    "occurrences</w>": 6792,
    "od</w>": 6793,
    "odd</w>": 6794,
    "odict</w>": 6795,
    "odl</w>": 6796,
    "of": 6797,
    "of</w>": 6798,
    "of_": 6799,
    "oferror</w>": 6800,
    "off": 6801,
    "offici": 6802,
    "official</w>": 6803,
    "offset'</w>": 6804,
    "offset</w>": 6805,
    "offset_": 6806,
    "offsets</w>": 6807,
    "offspring</w>": 6808,
    "oframe</w>": 6809,
    "og": 6810,
    "oh</w>": 6811,
    "oid</w>": 6812,
    "ok": 6813,
    "ok</w>": 6814,
    "okay</w>": 6815,
    "oki": 6816,
    "ol": 6817,
    "ol</w>": 6818,
    "ol_": 6819,
    "old</w>": 6820,
    "old_": 6821,
    "old_div</w>": 6822,
    "ole": 6823,
    "ols</w>": 6824,
    "om</w>": 6825,
    "omeg": 6826,
    "omega</w>": 6827,
    "omit</w>": 6828,
    "omitted</w>": 6829,
    "on": 6830,
    "on</w>": 6831,
    "on_": 6832,
    "on_error</w>": 6833,
    "once</w>": 6834,
    "one</w>": 6835,
    "onl": 6836,
    "only'</w>": 6837,
    "only</w>": 6838,
    "ono": 6839,
    "ons</w>": 6840,
    "onset</w>": 6841,
    "onsets</w>": 6842,
    "onto": 6843,
    "onto</w>": 6844,
    "ontology</w>": 6845,
    "oo": 6846,
    "op": 6847,
    "op</w>": 6848,
    "op_": 6849,
    "opa": 6850,
    "opaque</w>": 6851,
    "opatch</w>": 6852,
    "opcode</w>": 6853,
    "open": 6854,
    "openfile</w>": 6855,
    "openquake</w>": 6856,
    "openssl</w>": 6857,
    "openstack</w>": 6858,
    "operation": 6859,
    "operational'</w>": 6860,
    "operationalerror</w>": 6861,
    "operationclass</w>": 6862,
    "operationfailed</w>": 6863,
    "ople</w>": 6864,
    "opro": 6865,
    "oprot</w>": 6866,
    "ops</w>": 6867,
    "opt</w>": 6868,
    "opt_": 6869,
    "optimal</w>": 6870,
    "optimi": 6871,
    "optimization</w>": 6872,
    "optimize</w>": 6873,
    "optimized</w>": 6874,
    "optimizer</w>": 6875,
    "option": 6876,
    "option</w>": 6877,
    "optional</w>": 6878,
    "optional_": 6879,
    "optionally</w>": 6880,
    "optionparser</w>": 6881,
    "options'</w>": 6882,
    "options</w>": 6883,
    "opts</w>": 6884,
    "oq": 6885,
    "oqparam</w>": 6886,
    "or": 6887,
    "or</w>": 6888,
    "or_": 6889,
    "or_404</w>": 6890,
    "or_create</w>": 6891,
    "or_object</w>": 6892,
    "orb</w>": 6893,
    "orbit</w>": 6894,
    "order</w>": 6895,
    "order_": 6896,
    "order_by</w>": 6897,
    "ordered": 6898,
    "ordered</w>": 6899,
    "ordereddict</w>": 6900,
    "ordin": 6901,
    "ordinal</w>": 6902,
    "org": 6903,
    "org</w>": 6904,
    "organi": 6905,
    "organiz": 6906,
    "organization</w>": 6907,
    "ori": 6908,
    "orien": 6909,
    "orientation</w>": 6910,
    "oriented</w>": 6911,
    "origin": 6912,
    "original": 6913,
    "original</w>": 6914,
    "original_": 6915,
    "originally</w>": 6916,
    "orthogon": 6917,
    "orthogonal</w>": 6918,
    "ory</w>": 6919,
    "os</w>": 6920,
    "os_": 6921,
    "oscill": 6922,
    "oserror</w>": 6923,
    "osid</w>": 6924,
    "osid_": 6925,
    "osp</w>": 6926,
    "ot</w>": 6927,
    "other": 6928,
    "other</w>": 6929,
    "otherwise</w>": 6930,
    "otp</w>": 6931,
    "otu</w>": 6932,
    "otype</w>": 6933,
    "ou</w>": 6934,
    "our": 6935,
    "our</w>": 6936,
    "ourselves</w>": 6937,
    "ous</w>": 6938,
    "out": 6939,
    "out\"</w>": 6940,
    "out'</w>": 6941,
    "out</w>": 6942,
    "out_": 6943,
    "out_dir</w>": 6944,
    "out_file</w>": 6945,
    "out_handle</w>": 6946,
    "outbound</w>": 6947,
    "outcome</w>": 6948,
    "outcomes</w>": 6949,
    "outdated</w>": 6950,
    "outdict</w>": 6951,
    "outdir</w>": 6952,
    "outerror</w>": 6953,
    "outfile</w>": 6954,
    "output": 6955,
    "output</w>": 6956,
    "output_": 6957,
    "output_channels</w>": 6958,
    "output_dim</w>": 6959,
    "output_dir</w>": 6960,
    "output_dir_path</w>": 6961,
    "output_directory</w>": 6962,
    "output_encoding</w>": 6963,
    "output_file</w>": 6964,
    "output_format</w>": 6965,
    "output_path</w>": 6966,
    "output_shape</w>": 6967,
    "outputdir</w>": 6968,
    "outputs</w>": 6969,
    "outs</w>": 6970,
    "ov": 6971,
    "over": 6972,
    "overflow</w>": 6973,
    "overhead</w>": 6974,
    "overl": 6975,
    "overlap</w>": 6976,
    "overlapping</w>": 6977,
    "overlaps</w>": 6978,
    "overview</w>": 6979,
    "overwrite</w>": 6980,
    "overwrites</w>": 6981,
    "overwriting</w>": 6982,
    "overwritten</w>": 6983,
    "ow": 6984,
    "owl</w>": 6985,
    "own</w>": 6986,
    "owned</w>": 6987,
    "owner": 6988,
    "owner</w>": 6989,
    "ownership</w>": 6990,
    "owns</w>": 6991,
    "ox": 6992,
    "p": 6993,
    "p\"</w>": 6994,
    "p'</w>": 6995,
    "p0</w>": 6996,
    "p1</w>": 6997,
    "p2": 6998,
    "p2</w>": 6999,
    "p3</w>": 7000,
    "p</w>": 7001,
    "p_": 7002,
    "p_</w>": 7003,
    "p`</w>": 7004,
    "pa": 7005,
    "pac": 7006,
    "pack": 7007,
    "pack</w>": 7008,
    "pack_": 7009,
    "package": 7010,
    "package</w>": 7011,
    "package_": 7012,
    "package_dir</w>": 7013,
    "packages</w>": 7014,
    "packe": 7015,
    "packets</w>": 7016,
    "page</w>": 7017,
    "page_": 7018,
    "page_size</w>": 7019,
    "page_token</w>": 7020,
    "pagin": 7021,
    "paginate</w>": 7022,
    "paginated</w>": 7023,
    "paginatedlist</w>": 7024,
    "pagination</w>": 7025,
    "paginator</w>": 7026,
    "pai": 7027,
    "pair": 7028,
    "pairs</w>": 7029,
    "pairwise</w>": 7030,
    "pairwise_": 7031,
    "pale": 7032,
    "palette</w>": 7033,
    "pand": 7034,
    "pandas</w>": 7035,
    "par": 7036,
    "parall": 7037,
    "parallax</w>": 7038,
    "paralleli": 7039,
    "parallelize</w>": 7040,
    "param</w>": 7041,
    "parame": 7042,
    "parameter": 7043,
    "parameter</w>": 7044,
    "parameter_": 7045,
    "parametererror</w>": 7046,
    "parameteri": 7047,
    "parameterized</w>": 7048,
    "parameters\"</w>": 7049,
    "parameters'</w>": 7050,
    "parameters</w>": 7051,
    "parameterstep</w>": 7052,
    "parami": 7053,
    "paramiko</w>": 7054,
    "params</w>": 7055,
    "paren": 7056,
    "parent": 7057,
    "parent</w>": 7058,
    "parent_": 7059,
    "parent_dir</w>": 7060,
    "parentnode</w>": 7061,
    "pars</w>": 7062,
    "parse": 7063,
    "parse</w>": 7064,
    "parse_": 7065,
    "parse_args</w>": 7066,
    "parsed</w>": 7067,
    "parsed_": 7068,
    "parser</w>": 7069,
    "parser_": 7070,
    "parser_mediator</w>": 7071,
    "parsers</w>": 7072,
    "parses</w>": 7073,
    "parsing</w>": 7074,
    "part": 7075,
    "part</w>": 7076,
    "part_": 7077,
    "parti": 7078,
    "partial": 7079,
    "partial</w>": 7080,
    "partial_": 7081,
    "particul": 7082,
    "particular</w>": 7083,
    "particularly</w>": 7084,
    "partition</w>": 7085,
    "partner</w>": 7086,
    "parts</w>": 7087,
    "pas": 7088,
    "pass": 7089,
    "pass</w>": 7090,
    "passph": 7091,
    "passphrase</w>": 7092,
    "password</w>": 7093,
    "pat": 7094,
    "patch": 7095,
    "patch</w>": 7096,
    "patch_": 7097,
    "patched</w>": 7098,
    "patches</w>": 7099,
    "path": 7100,
    "path\"</w>": 7101,
    "path</w>": 7102,
    "path_": 7103,
    "path__</w>": 7104,
    "path_helper</w>": 7105,
    "path_prefix</w>": 7106,
    "path_segment</w>": 7107,
    "path_segments</w>": 7108,
    "path_separator</w>": 7109,
    "path_spec</w>": 7110,
    "path`</w>": 7111,
    "path``</w>": 7112,
    "pathname</w>": 7113,
    "paths'</w>": 7114,
    "paths</w>": 7115,
    "pathsep</w>": 7116,
    "pathspec</w>": 7117,
    "patter": 7118,
    "pattern</w>": 7119,
    "pay": 7120,
    "payload</w>": 7121,
    "payload_": 7122,
    "payloads</w>": 7123,
    "paymen": 7124,
    "payment</w>": 7125,
    "payment_": 7126,
    "pb": 7127,
    "pb2</w>": 7128,
    "pc</w>": 7129,
    "pca</w>": 7130,
    "pcap</w>": 7131,
    "pconfig</w>": 7132,
    "pcs</w>": 7133,
    "pct</w>": 7134,
    "pd": 7135,
    "pd</w>": 7136,
    "pdu</w>": 7137,
    "pe": 7138,
    "pea": 7139,
    "ped</w>": 7140,
    "peer</w>": 7141,
    "peer_": 7142,
    "peers</w>": 7143,
    "peg</w>": 7144,
    "pen": 7145,
    "penal": 7146,
    "penalty</w>": 7147,
    "people</w>": 7148,
    "per": 7149,
    "per</w>": 7150,
    "per_": 7151,
    "per_page</w>": 7152,
    "percen": 7153,
    "percentage</w>": 7154,
    "percentile</w>": 7155,
    "percentiles</w>": 7156,
    "perf_": 7157,
    "perf_log</w>": 7158,
    "perfect</w>": 7159,
    "perfor": 7160,
    "perform</w>": 7161,
    "perhaps</w>": 7162,
    "peri": 7163,
    "perio": 7164,
    "period'</w>": 7165,
    "period</w>": 7166,
    "period_": 7167,
    "periodic</w>": 7168,
    "periodically</w>": 7169,
    "periodogram</w>": 7170,
    "periods</w>": 7171,
    "permission</w>": 7172,
    "permissions</w>": 7173,
    "perpendicul": 7174,
    "perpendicular</w>": 7175,
    "pers</w>": 7176,
    "persist</w>": 7177,
    "persisted</w>": 7178,
    "persisten": 7179,
    "persistent</w>": 7180,
    "person": 7181,
    "person</w>": 7182,
    "personal</w>": 7183,
    "pet</w>": 7184,
    "pexpect_": 7185,
    "pexpect_child</w>": 7186,
    "pf": 7187,
    "pf</w>": 7188,
    "pg": 7189,
    "pg'</w>": 7190,
    "pg</w>": 7191,
    "pga</w>": 7192,
    "ph": 7193,
    "pha'</w>": 7194,
    "pha</w>": 7195,
    "pha_": 7196,
    "phabet</w>": 7197,
    "phan": 7198,
    "phanto": 7199,
    "phanumeric</w>": 7200,
    "phas</w>": 7201,
    "pho": 7202,
    "phoebe</w>": 7203,
    "photo": 7204,
    "photo</w>": 7205,
    "phrase</w>": 7206,
    "phrases</w>": 7207,
    "phy": 7208,
    "physi": 7209,
    "physical</w>": 7210,
    "pi": 7211,
    "pi</w>": 7212,
    "pianoroll</w>": 7213,
    "pick": 7214,
    "pika</w>": 7215,
    "pil": 7216,
    "pill": 7217,
    "pillar</w>": 7218,
    "ping</w>": 7219,
    "pint</w>": 7220,
    "pit": 7221,
    "pitch</w>": 7222,
    "pivo": 7223,
    "pivot</w>": 7224,
    "pix": 7225,
    "pix</w>": 7226,
    "pixel": 7227,
    "pixel</w>": 7228,
    "pixel_": 7229,
    "pixel_scale</w>": 7230,
    "pixels</w>": 7231,
    "pixmap</w>": 7232,
    "pj": 7233,
    "pk": 7234,
    "pkcs": 7235,
    "pkg": 7236,
    "pkg</w>": 7237,
    "pkg_": 7238,
    "pkg_resources</w>": 7239,
    "pkgname</w>": 7240,
    "pkgs</w>": 7241,
    "pkt</w>": 7242,
    "pl": 7243,
    "pl</w>": 7244,
    "place": 7245,
    "place</w>": 7246,
    "placeholder</w>": 7247,
    "placeholders</w>": 7248,
    "plain'</w>": 7249,
    "plain</w>": 7250,
    "plain_": 7251,
    "plaintext</w>": 7252,
    "plan": 7253,
    "plan</w>": 7254,
    "plane</w>": 7255,
    "plat": 7256,
    "platform</w>": 7257,
    "play": 7258,
    "playbook</w>": 7259,
    "playlist</w>": 7260,
    "ple": 7261,
    "please</w>": 7262,
    "pli": 7263,
    "plo": 7264,
    "plot": 7265,
    "plot</w>": 7266,
    "plotlib</w>": 7267,
    "plots</w>": 7268,
    "plots_": 7269,
    "plt</w>": 7270,
    "plu": 7271,
    "plugin": 7272,
    "plugin</w>": 7273,
    "plugin_": 7274,
    "plugins</w>": 7275,
    "plus</w>": 7276,
    "ply</w>": 7277,
    "pm": 7278,
    "pmtinf_nodes</w>": 7279,
    "pn": 7280,
    "po": 7281,
    "pod": 7282,
    "pod_": 7283,
    "poin": 7284,
    "point'</w>": 7285,
    "point</w>": 7286,
    "point_": 7287,
    "points</w>": 7288,
    "pois": 7289,
    "poisson</w>": 7290,
    "pol": 7291,
    "polar</w>": 7292,
    "polari": 7293,
    "polarity</w>": 7294,
    "poli": 7295,
    "policies</w>": 7296,
    "policy": 7297,
    "policy</w>": 7298,
    "policy_": 7299,
    "poly": 7300,
    "polyax": 7301,
    "polyaxon": 7302,
    "polygon": 7303,
    "polygon</w>": 7304,
    "polygons</w>": 7305,
    "polyline</w>": 7306,
    "polyno": 7307,
    "polynomial</w>": 7308,
    "polynomials</w>": 7309,
    "pool": 7310,
    "pool</w>": 7311,
    "pool_": 7312,
    "popul": 7313,
    "populate</w>": 7314,
    "populated</w>": 7315,
    "population</w>": 7316,
    "populations</w>": 7317,
    "por": 7318,
    "port</w>": 7319,
    "port_": 7320,
    "ports</w>": 7321,
    "pos'</w>": 7322,
    "pos1</w>": 7323,
    "pos2</w>": 7324,
    "pos</w>": 7325,
    "pos_": 7326,
    "pose</w>": 7327,
    "posed</w>": 7328,
    "posi": 7329,
    "positi": 7330,
    "position": 7331,
    "position</w>": 7332,
    "positional</w>": 7333,
    "positions</w>": 7334,
    "positive</w>": 7335,
    "positives</w>": 7336,
    "possi": 7337,
    "possible</w>": 7338,
    "possible_": 7339,
    "possibly</w>": 7340,
    "post": 7341,
    "post\"</w>": 7342,
    "post</w>": 7343,
    "post_": 7344,
    "pot</w>": 7345,
    "pot_args</w>": 7346,
    "poten": 7347,
    "potenti": 7348,
    "potential</w>": 7349,
    "potential_": 7350,
    "potentially</w>": 7351,
    "potentials</w>": 7352,
    "pp": 7353,
    "pp</w>": 7354,
    "pp_": 7355,
    "pprint</w>": 7356,
    "pq</w>": 7357,
    "pr": 7358,
    "prag": 7359,
    "pragma</w>": 7360,
    "pre": 7361,
    "preamble</w>": 7362,
    "pred</w>": 7363,
    "predeces": 7364,
    "predecessors</w>": 7365,
    "predict_": 7366,
    "predict_proba</w>": 7367,
    "prefi": 7368,
    "prefix": 7369,
    "prefix</w>": 7370,
    "prefixes</w>": 7371,
    "preorder</w>": 7372,
    "prepare_": 7373,
    "pres": 7374,
    "presen": 7375,
    "presence</w>": 7376,
    "presented</w>": 7377,
    "preser": 7378,
    "preserve</w>": 7379,
    "press</w>": 7380,
    "pressed</w>": 7381,
    "pressure</w>": 7382,
    "pretty_": 7383,
    "pretty_message</w>": 7384,
    "previ": 7385,
    "previo": 7386,
    "previous</w>": 7387,
    "previous_": 7388,
    "previously</w>": 7389,
    "pri": 7390,
    "price</w>": 7391,
    "prices</w>": 7392,
    "primiti": 7393,
    "primitive</w>": 7394,
    "primitives</w>": 7395,
    "prin": 7396,
    "principal</w>": 7397,
    "print</w>": 7398,
    "print_": 7399,
    "print_error</w>": 7400,
    "print_exc</w>": 7401,
    "print_help</w>": 7402,
    "priv": 7403,
    "private": 7404,
    "private</w>": 7405,
    "private_": 7406,
    "private_key</w>": 7407,
    "privkey</w>": 7408,
    "pro": 7409,
    "prob": 7410,
    "proba</w>": 7411,
    "probabilities</w>": 7412,
    "probability</w>": 7413,
    "probably</w>": 7414,
    "proce": 7415,
    "proced": 7416,
    "procedure</w>": 7417,
    "proceed</w>": 7418,
    "proces": 7419,
    "process'</w>": 7420,
    "process</w>": 7421,
    "process_": 7422,
    "processed</w>": 7423,
    "processed_": 7424,
    "processerror</w>": 7425,
    "processes</w>": 7426,
    "processid</w>": 7427,
    "processor</w>": 7428,
    "processors</w>": 7429,
    "prod": 7430,
    "produce</w>": 7431,
    "produced</w>": 7432,
    "produceextraction": 7433,
    "produceextractionwarning</w>": 7434,
    "producer</w>": 7435,
    "produces</w>": 7436,
    "product</w>": 7437,
    "product_": 7438,
    "production</w>": 7439,
    "products</w>": 7440,
    "profi": 7441,
    "proficien": 7442,
    "profile</w>": 7443,
    "profile_": 7444,
    "profiles</w>": 7445,
    "prog": 7446,
    "program</w>": 7447,
    "progres": 7448,
    "progress</w>": 7449,
    "progressbar</w>": 7450,
    "proj": 7451,
    "proj</w>": 7452,
    "projec": 7453,
    "project_": 7454,
    "project_dir</w>": 7455,
    "promise</w>": 7456,
    "promo": 7457,
    "promote</w>": 7458,
    "promp": 7459,
    "prompt</w>": 7460,
    "prompt_": 7461,
    "proper": 7462,
    "properly</w>": 7463,
    "properti": 7464,
    "properties</w>": 7465,
    "property</w>": 7466,
    "property_": 7467,
    "propo": 7468,
    "proportion": 7469,
    "proportional</w>": 7470,
    "proposal</w>": 7471,
    "proposals</w>": 7472,
    "prote": 7473,
    "protein</w>": 7474,
    "proto": 7475,
    "protocol</w>": 7476,
    "prototype</w>": 7477,
    "prov</w>": 7478,
    "provenan": 7479,
    "provenance</w>": 7480,
    "provide</w>": 7481,
    "provided'</w>": 7482,
    "provided</w>": 7483,
    "provider": 7484,
    "provider</w>": 7485,
    "provider_": 7486,
    "providers</w>": 7487,
    "provides</w>": 7488,
    "providing</w>": 7489,
    "provisioning</w>": 7490,
    "prox": 7491,
    "proxi": 7492,
    "proxy</w>": 7493,
    "proxy_": 7494,
    "proxy__</w>": 7495,
    "proxy_port</w>": 7496,
    "proxy_url</w>": 7497,
    "ps": 7498,
    "ps</w>": 7499,
    "psd</w>": 7500,
    "pseu": 7501,
    "pseudo</w>": 7502,
    "psy": 7503,
    "psycopg2</w>": 7504,
    "pt": 7505,
    "pt</w>": 7506,
    "ptc</w>": 7507,
    "pth</w>": 7508,
    "ptr</w>": 7509,
    "pts</w>": 7510,
    "ptype</w>": 7511,
    "pu": 7512,
    "pub": 7513,
    "pubkey</w>": 7514,
    "publi": 7515,
    "public</w>": 7516,
    "public_": 7517,
    "public_ip</w>": 7518,
    "public_key</w>": 7519,
    "publication</w>": 7520,
    "pubmed</w>": 7521,
    "pul": 7522,
    "pull</w>": 7523,
    "pulse</w>": 7524,
    "pun": 7525,
    "punctu": 7526,
    "punctuation</w>": 7527,
    "pur": 7528,
    "purpo": 7529,
    "purpose</w>": 7530,
    "purposes</w>": 7531,
    "purview</w>": 7532,
    "push</w>": 7533,
    "push_": 7534,
    "put": 7535,
    "put</w>": 7536,
    "put_": 7537,
    "puts</w>": 7538,
    "pv": 7539,
    "pv</w>": 7540,
    "pw": 7541,
    "pwm</w>": 7542,
    "px": 7543,
    "px</w>": 7544,
    "py": 7545,
    "py2": 7546,
    "py3": 7547,
    "py3</w>": 7548,
    "py</w>": 7549,
    "pyamg</w>": 7550,
    "pybel</w>": 7551,
    "pycbc</w>": 7552,
    "pycdlibexception</w>": 7553,
    "pycdlibinternalerror</w>": 7554,
    "pycdlibinvalidinput</w>": 7555,
    "pycurl</w>": 7556,
    "pyfunceble</w>": 7557,
    "pygame</w>": 7558,
    "pygments</w>": 7559,
    "pyh": 7560,
    "pyhpe": 7561,
    "pyhpeimc</w>": 7562,
    "pylab</w>": 7563,
    "pylint</w>": 7564,
    "pymatgen</w>": 7565,
    "pymongo</w>": 7566,
    "pymux</w>": 7567,
    "pynos</w>": 7568,
    "pypet": 7569,
    "pypetconstants</w>": 7570,
    "pyramid</w>": 7571,
    "pyrogram</w>": 7572,
    "pysam</w>": 7573,
    "pysat</w>": 7574,
    "pysnmp</w>": 7575,
    "pytg": 7576,
    "python": 7577,
    "python's</w>": 7578,
    "python3</w>": 7579,
    "python</w>": 7580,
    "python_": 7581,
    "python_shell</w>": 7582,
    "pytorch</w>": 7583,
    "pytwis_": 7584,
    "pytwis_cl": 7585,
    "pytwis_clt_constants</w>": 7586,
    "pytz</w>": 7587,
    "pywbem</w>": 7588,
    "q": 7589,
    "q\"</w>": 7590,
    "q'</w>": 7591,
    "q0</w>": 7592,
    "q1</w>": 7593,
    "q2</w>": 7594,
    "q</w>": 7595,
    "q_": 7596,
    "qa</w>": 7597,
    "qa_": 7598,
    "qapplication</w>": 7599,
    "qb</w>": 7600,
    "qc</w>": 7601,
    "qcolor</w>": 7602,
    "qd</w>": 7603,
    "qemu</w>": 7604,
    "qid</w>": 7605,
    "qiskiterror</w>": 7606,
    "qj</w>": 7607,
    "ql</w>": 7608,
    "qmessagebox</w>": 7609,
    "qn</w>": 7610,
    "qname</w>": 7611,
    "qo": 7612,
    "qos</w>": 7613,
    "qp</w>": 7614,
    "qq": 7615,
    "qq</w>": 7616,
    "qr": 7617,
    "qs</w>": 7618,
    "qsize</w>": 7619,
    "qt": 7620,
    "qtcore</w>": 7621,
    "qtext": 7622,
    "qtextcursor</w>": 7623,
    "qu": 7624,
    "quad</w>": 7625,
    "quadratic</w>": 7626,
    "quadrature</w>": 7627,
    "quake</w>": 7628,
    "qualifi": 7629,
    "quality</w>": 7630,
    "quan": 7631,
    "quanti": 7632,
    "quantity</w>": 7633,
    "quarter</w>": 7634,
    "quaternion</w>": 7635,
    "qubit</w>": 7636,
    "qubits</w>": 7637,
    "que": 7638,
    "que</w>": 7639,
    "que_": 7640,
    "quely</w>": 7641,
    "quer": 7642,
    "queri": 7643,
    "queries</w>": 7644,
    "query": 7645,
    "query</w>": 7646,
    "query_": 7647,
    "query_parameters</w>": 7648,
    "query_params</w>": 7649,
    "query_str</w>": 7650,
    "query_string</w>": 7651,
    "queryset</w>": 7652,
    "querystring</w>": 7653,
    "ques</w>": 7654,
    "queue": 7655,
    "queue</w>": 7656,
    "queue_": 7657,
    "queued</w>": 7658,
    "queues</w>": 7659,
    "qui": 7660,
    "quick</w>": 7661,
    "quid</w>": 7662,
    "quiet</w>": 7663,
    "quire</w>": 7664,
    "quired</w>": 7665,
    "quo": 7666,
    "quota</w>": 7667,
    "quote</w>": 7668,
    "quote_": 7669,
    "quote_plus</w>": 7670,
    "quotechar</w>": 7671,
    "quoted</w>": 7672,
    "quotes</w>": 7673,
    "quoting</w>": 7674,
    "qwidget</w>": 7675,
    "r": 7676,
    "r\"\"\"</w>": 7677,
    "r\"</w>": 7678,
    "r\"\\": 7679,
    "r'''</w>": 7680,
    "r'''calculates</w>": 7681,
    "r'</w>": 7682,
    "r'\\": 7683,
    "r0</w>": 7684,
    "r1</w>": 7685,
    "r2": 7686,
    "r2</w>": 7687,
    "r3</w>": 7688,
    "r</w>": 7689,
    "r_": 7690,
    "ra": 7691,
    "rab</w>": 7692,
    "rabbit": 7693,
    "rabbitmq</w>": 7694,
    "rac</w>": 7695,
    "rac_": 7696,
    "race": 7697,
    "racke": 7698,
    "raction": 7699,
    "raction</w>": 7700,
    "rad</w>": 7701,
    "rad_": 7702,
    "rade": 7703,
    "rade</w>": 7704,
    "radi": 7705,
    "radial</w>": 7706,
    "radians</w>": 7707,
    "radius</w>": 7708,
    "radius_": 7709,
    "rads</w>": 7710,
    "rag": 7711,
    "rai": 7712,
    "rain": 7713,
    "rain</w>": 7714,
    "rains'</w>": 7715,
    "rains</w>": 7716,
    "rains__</w>": 7717,
    "raise</w>": 7718,
    "raise_": 7719,
    "raise_exception</w>": 7720,
    "raise_for_": 7721,
    "raise_for_status</w>": 7722,
    "ral</w>": 7723,
    "ram": 7724,
    "ram</w>": 7725,
    "rame": 7726,
    "rame</w>": 7727,
    "rame_": 7728,
    "rames</w>": 7729,
    "ramid</w>": 7730,
    "ran": 7731,
    "rando": 7732,
    "random": 7733,
    "random</w>": 7734,
    "random_": 7735,
    "random_seed</w>": 7736,
    "random_state</w>": 7737,
    "randomi": 7738,
    "randomize</w>": 7739,
    "randomly</w>": 7740,
    "randomstate</w>": 7741,
    "range</w>": 7742,
    "rank": 7743,
    "rank</w>": 7744,
    "rank_": 7745,
    "ranking</w>": 7746,
    "ranks</w>": 7747,
    "rap": 7748,
    "rap</w>": 7749,
    "rap_": 7750,
    "rapped</w>": 7751,
    "rapped_": 7752,
    "rapper</w>": 7753,
    "rappers</w>": 7754,
    "rapping</w>": 7755,
    "raps</w>": 7756,
    "rary</w>": 7757,
    "rary_": 7758,
    "rase</w>": 7759,
    "rases</w>": 7760,
    "rate</w>": 7761,
    "rated</w>": 7762,
    "ration</w>": 7763,
    "rations</w>": 7764,
    "rator</w>": 7765,
    "raw</w>": 7766,
    "raw_": 7767,
    "ray'</w>": 7768,
    "ray</w>": 7769,
    "rb": 7770,
    "rb</w>": 7771,
    "rbrid": 7772,
    "rbridge_id</w>": 7773,
    "rc'</w>": 7774,
    "rc</w>": 7775,
    "rconf</w>": 7776,
    "rcparams</w>": 7777,
    "rd": 7778,
    "rd</w>": 7779,
    "rdf": 7780,
    "rdfvalue</w>": 7781,
    "re": 7782,
    "reachable</w>": 7783,
    "reached</w>": 7784,
    "reaches</w>": 7785,
    "reaction</w>": 7786,
    "reaction_id</w>": 7787,
    "reactions</w>": 7788,
    "reactor</w>": 7789,
    "read": 7790,
    "read</w>": 7791,
    "read_": 7792,
    "read_csv</w>": 7793,
    "read_only</w>": 7794,
    "readme</w>": 7795,
    "reads</w>": 7796,
    "readthedocs</w>": 7797,
    "ready": 7798,
    "ready</w>": 7799,
    "ready_": 7800,
    "real": 7801,
    "real</w>": 7802,
    "realm</w>": 7803,
    "realpath</w>": 7804,
    "reason": 7805,
    "reason</w>": 7806,
    "reasonable</w>": 7807,
    "reasons</w>": 7808,
    "rec": 7809,
    "rece": 7810,
    "recei": 7811,
    "receive</w>": 7812,
    "received</w>": 7813,
    "receiver</w>": 7814,
    "receivers</w>": 7815,
    "receives</w>": 7816,
    "receiving</w>": 7817,
    "recen": 7818,
    "recently</w>": 7819,
    "reco": 7820,
    "recogni": 7821,
    "recognize</w>": 7822,
    "recognized</w>": 7823,
    "recor": 7824,
    "record</w>": 7825,
    "records</w>": 7826,
    "rect</w>": 7827,
    "rection</w>": 7828,
    "rectly</w>": 7829,
    "recur": 7830,
    "recurse</w>": 7831,
    "recursi": 7832,
    "recursive</w>": 7833,
    "recursive_": 7834,
    "recursively</w>": 7835,
    "red": 7836,
    "red</w>": 7837,
    "redirect_": 7838,
    "redirect_uri</w>": 7839,
    "reduce</w>": 7840,
    "reduce_": 7841,
    "reduce_mean</w>": 7842,
    "reduce_sum</w>": 7843,
    "reduced</w>": 7844,
    "reduced_": 7845,
    "reduction</w>": 7846,
    "redundan": 7847,
    "redundant</w>": 7848,
    "ref": 7849,
    "ref'</w>": 7850,
    "ref</w>": 7851,
    "ref_": 7852,
    "referen": 7853,
    "reference</w>": 7854,
    "reference_": 7855,
    "referenced</w>": 7856,
    "references</w>": 7857,
    "referencing</w>": 7858,
    "refresh</w>": 7859,
    "refresh_": 7860,
    "refresh_token</w>": 7861,
    "reg": 7862,
    "reg</w>": 7863,
    "regarding</w>": 7864,
    "regardless</w>": 7865,
    "regex</w>": 7866,
    "regi": 7867,
    "region</w>": 7868,
    "register</w>": 7869,
    "register_": 7870,
    "register_paths</w>": 7871,
    "regul": 7872,
    "regular</w>": 7873,
    "regulari": 7874,
    "regularization</w>": 7875,
    "regularizer</w>": 7876,
    "reindex</w>": 7877,
    "reject</w>": 7878,
    "rejected</w>": 7879,
    "rel": 7880,
    "related</w>": 7881,
    "related_": 7882,
    "relati": 7883,
    "relation": 7884,
    "relation</w>": 7885,
    "relationship</w>": 7886,
    "relationships</w>": 7887,
    "relative</w>": 7888,
    "relative_": 7889,
    "relativedelta</w>": 7890,
    "relativepath</w>": 7891,
    "relax": 7892,
    "relaxation</w>": 7893,
    "rele": 7894,
    "release</w>": 7895,
    "release_": 7896,
    "released</w>": 7897,
    "releases</w>": 7898,
    "relev": 7899,
    "relevan": 7900,
    "relevant</w>": 7901,
    "reli": 7902,
    "reliable</w>": 7903,
    "relpath</w>": 7904,
    "relu</w>": 7905,
    "rements</w>": 7906,
    "remo": 7907,
    "remote": 7908,
    "remote</w>": 7909,
    "remote_": 7910,
    "remote_addr</w>": 7911,
    "remotes</w>": 7912,
    "removal</w>": 7913,
    "remove": 7914,
    "remove</w>": 7915,
    "remove_": 7916,
    "removed</w>": 7917,
    "removes</w>": 7918,
    "removing</w>": 7919,
    "ren": 7920,
    "ren</w>": 7921,
    "render_": 7922,
    "render_template</w>": 7923,
    "reorder</w>": 7924,
    "rep": 7925,
    "repl": 7926,
    "replace</w>": 7927,
    "replacing</w>": 7928,
    "repli": 7929,
    "replica</w>": 7930,
    "replication</w>": 7931,
    "reply": 7932,
    "reply_": 7933,
    "reply_markup</w>": 7934,
    "reply_to_": 7935,
    "reply_to_message_id</w>": 7936,
    "replykeybo": 7937,
    "repo": 7938,
    "repo_": 7939,
    "repo_dir</w>": 7940,
    "repositor": 7941,
    "repository": 7942,
    "repository</w>": 7943,
    "repository_": 7944,
    "repr</w>": 7945,
    "represen": 7946,
    "representation</w>": 7947,
    "representations</w>": 7948,
    "representative</w>": 7949,
    "representative_": 7950,
    "represented</w>": 7951,
    "representing</w>": 7952,
    "req": 7953,
    "req'</w>": 7954,
    "req</w>": 7955,
    "req_": 7956,
    "requ": 7957,
    "reque": 7958,
    "request": 7959,
    "request</w>": 7960,
    "request_": 7961,
    "requestcontext</w>": 7962,
    "requested</w>": 7963,
    "requests</w>": 7964,
    "requi": 7965,
    "required</w>": 7966,
    "requirements</w>": 7967,
    "requires</w>": 7968,
    "res": 7969,
    "res</w>": 7970,
    "reser": 7971,
    "reserv": 7972,
    "reservation</w>": 7973,
    "reserved</w>": 7974,
    "reshol": 7975,
    "resid": 7976,
    "residual</w>": 7977,
    "residuals</w>": 7978,
    "residues</w>": 7979,
    "resol": 7980,
    "resolve</w>": 7981,
    "resolve_": 7982,
    "resolved</w>": 7983,
    "resolved_": 7984,
    "resolves</w>": 7985,
    "resolving</w>": 7986,
    "resour": 7987,
    "resources</w>": 7988,
    "respecti": 7989,
    "respective</w>": 7990,
    "respectively</w>": 7991,
    "respon": 7992,
    "respond</w>": 7993,
    "responding</w>": 7994,
    "responds</w>": 7995,
    "response": 7996,
    "response</w>": 7997,
    "response_": 7998,
    "response_code</w>": 7999,
    "response`</w>": 8000,
    "responses</w>": 8001,
    "responsible</w>": 8002,
    "restri": 8003,
    "restricted": 8004,
    "restricted</w>": 8005,
    "restrictedclasstype</w>": 8006,
    "restriction_": 8007,
    "restriction_arg</w>": 8008,
    "resul": 8009,
    "result": 8010,
    "result</w>": 8011,
    "result_": 8012,
    "resulting</w>": 8013,
    "results</w>": 8014,
    "results_": 8015,
    "results_dir</w>": 8016,
    "ret": 8017,
    "ret_": 8018,
    "ret_code</w>": 8019,
    "ret_val</w>": 8020,
    "retcode</w>": 8021,
    "retri": 8022,
    "retrieve</w>": 8023,
    "retrieved</w>": 8024,
    "retry": 8025,
    "retry_": 8026,
    "retry_count</w>": 8027,
    "retryable</w>": 8028,
    "retur": 8029,
    "return": 8030,
    "return</w>": 8031,
    "return_": 8032,
    "return_code</w>": 8033,
    "return_value</w>": 8034,
    "returncode</w>": 8035,
    "returned</w>": 8036,
    "returns</w>": 8037,
    "returntype</w>": 8038,
    "returnvalue</w>": 8039,
    "retval</w>": 8040,
    "reuse</w>": 8041,
    "reused</w>": 8042,
    "rever": 8043,
    "reverse</w>": 8044,
    "reverse_": 8045,
    "reversed</w>": 8046,
    "reward</w>": 8047,
    "rewrite</w>": 8048,
    "rey": 8049,
    "rf</w>": 8050,
    "rfc": 8051,
    "rfile</w>": 8052,
    "rfind</w>": 8053,
    "rg": 8054,
    "rgb": 8055,
    "rgb</w>": 8056,
    "rgb_": 8057,
    "rgba</w>": 8058,
    "rh</w>": 8059,
    "rho": 8060,
    "rho0</w>": 8061,
    "rho</w>": 8062,
    "rhs</w>": 8063,
    "ri": 8064,
    "riak</w>": 8065,
    "rid": 8066,
    "rid</w>": 8067,
    "rid_": 8068,
    "ridge</w>": 8069,
    "right</w>": 8070,
    "rin": 8071,
    "ring</w>": 8072,
    "rint</w>": 8073,
    "rip": 8074,
    "ritable</w>": 8075,
    "rite": 8076,
    "rite</w>": 8077,
    "rite_": 8078,
    "riter</w>": 8079,
    "riting</w>": 8080,
    "ritten</w>": 8081,
    "rity</w>": 8082,
    "rityerror</w>": 8083,
    "rjust</w>": 8084,
    "rk</w>": 8085,
    "rkey</w>": 8086,
    "rl": 8087,
    "rm": 8088,
    "rm</w>": 8089,
    "rmtree</w>": 8090,
    "rn": 8091,
    "ro": 8092,
    "rogram</w>": 8093,
    "roi</w>": 8094,
    "rol": 8095,
    "roll": 8096,
    "rollback</w>": 8097,
    "ron": 8098,
    "rono": 8099,
    "roo": 8100,
    "room</w>": 8101,
    "room_id</w>": 8102,
    "rooms</w>": 8103,
    "root": 8104,
    "root</w>": 8105,
    "root_": 8106,
    "root_dir</w>": 8107,
    "roots</w>": 8108,
    "ror": 8109,
    "ror</w>": 8110,
    "roster</w>": 8111,
    "rot</w>": 8112,
    "rotate</w>": 8113,
    "rotated</w>": 8114,
    "rotation</w>": 8115,
    "rotation_": 8116,
    "rotations</w>": 8117,
    "rote</w>": 8118,
    "rou": 8119,
    "rough": 8120,
    "roughness</w>": 8121,
    "round</w>": 8122,
    "round_": 8123,
    "rounded</w>": 8124,
    "rounding</w>": 8125,
    "route_": 8126,
    "route_values</w>": 8127,
    "row": 8128,
    "row</w>": 8129,
    "rowcount</w>": 8130,
    "rows</w>": 8131,
    "rp": 8132,
    "rp</w>": 8133,
    "rpc</w>": 8134,
    "rpc_": 8135,
    "rph</w>": 8136,
    "rq": 8137,
    "rr": 8138,
    "rr</w>": 8139,
    "rrset</w>": 8140,
    "rs</w>": 8141,
    "rsa</w>": 8142,
    "rsa_": 8143,
    "rslt</w>": 8144,
    "rsp</w>": 8145,
    "rsplit</w>": 8146,
    "rsr</w>": 8147,
    "rss</w>": 8148,
    "rst</w>": 8149,
    "rstate</w>": 8150,
    "rstrip</w>": 8151,
    "rsync</w>": 8152,
    "rt": 8153,
    "rt</w>": 8154,
    "rtype</w>": 8155,
    "ru": 8156,
    "ruby</w>": 8157,
    "rule</w>": 8158,
    "rule_": 8159,
    "rules</w>": 8160,
    "run": 8161,
    "run</w>": 8162,
    "run_": 8163,
    "run_all'</w>": 8164,
    "run_cmd</w>": 8165,
    "run_command</w>": 8166,
    "run_un": 8167,
    "run_until_complete</w>": 8168,
    "runas</w>": 8169,
    "runn": 8170,
    "runnable</w>": 8171,
    "runner</w>": 8172,
    "running</w>": 8173,
    "runtime": 8174,
    "runtime</w>": 8175,
    "runtimeerror</w>": 8176,
    "rv</w>": 8177,
    "rva</w>": 8178,
    "rval</w>": 8179,
    "rw</w>": 8180,
    "rx": 8181,
    "rx</w>": 8182,
    "rxn</w>": 8183,
    "ry": 8184,
    "ry</w>": 8185,
    "rz</w>": 8186,
    "s": 8187,
    "s\"\"\"</w>": 8188,
    "s\"'</w>": 8189,
    "s\"</w>": 8190,
    "s'\"</w>": 8191,
    "s'''</w>": 8192,
    "s'</w>": 8193,
    "s's</w>": 8194,
    "s0</w>": 8195,
    "s1": 8196,
    "s1</w>": 8197,
    "s1_": 8198,
    "s2": 8199,
    "s2</w>": 8200,
    "s3": 8201,
    "s30</w>": 8202,
    "s3</w>": 8203,
    "s3_": 8204,
    "s4</w>": 8205,
    "s</w>": 8206,
    "s?": 8207,
    "s?</w>": 8208,
    "s\\": 8209,
    "s\\'</w>": 8210,
    "s\\n\"</w>": 8211,
    "s\\n'</w>": 8212,
    "s\\n</w>": 8213,
    "s_": 8214,
    "s__</w>": 8215,
    "s_dir</w>": 8216,
    "s_name</w>": 8217,
    "s_per_": 8218,
    "s_to_": 8219,
    "s`</w>": 8220,
    "s``</w>": 8221,
    "sa": 8222,
    "sa</w>": 8223,
    "sa_": 8224,
    "safe</w>": 8225,
    "sage</w>": 8226,
    "sage_": 8227,
    "sal": 8228,
    "sal</w>": 8229,
    "sals</w>": 8230,
    "salt": 8231,
    "salt</w>": 8232,
    "saltcloudsystemexit</w>": 8233,
    "saltenv</w>": 8234,
    "saltin": 8235,
    "saltinvocationerror</w>": 8236,
    "sam": 8237,
    "sam</w>": 8238,
    "sample</w>": 8239,
    "sample_": 8240,
    "sample_name'</w>": 8241,
    "sample_name</w>": 8242,
    "sample_rate</w>": 8243,
    "samples</w>": 8244,
    "samtools</w>": 8245,
    "saniti": 8246,
    "sanitize</w>": 8247,
    "sanitized</w>": 8248,
    "sari": 8249,
    "sarily</w>": 8250,
    "sary</w>": 8251,
    "sat</w>": 8252,
    "sation</w>": 8253,
    "sations</w>": 8254,
    "save": 8255,
    "save</w>": 8256,
    "save_": 8257,
    "save_dir</w>": 8258,
    "save_plots</w>": 8259,
    "savefig</w>": 8260,
    "sb": 8261,
    "sb</w>": 8262,
    "sbar</w>": 8263,
    "sc": 8264,
    "sc</w>": 8265,
    "scaffold</w>": 8266,
    "scaffolds</w>": 8267,
    "scal": 8268,
    "scalar": 8269,
    "scalar</w>": 8270,
    "scalar_": 8271,
    "scalars</w>": 8272,
    "scale</w>": 8273,
    "scall</w>": 8274,
    "scan": 8275,
    "scan</w>": 8276,
    "scansion</w>": 8277,
    "scape</w>": 8278,
    "scen": 8279,
    "scenario</w>": 8280,
    "scenarios</w>": 8281,
    "sche": 8282,
    "sched": 8283,
    "schedule</w>": 8284,
    "schedule_": 8285,
    "scheduled</w>": 8286,
    "scheduler</w>": 8287,
    "schema</w>": 8288,
    "sci": 8289,
    "scikit</w>": 8290,
    "scill": 8291,
    "scipy</w>": 8292,
    "scis": 8293,
    "scope</w>": 8294,
    "score</w>": 8295,
    "scores</w>": 8296,
    "scrat": 8297,
    "scratch</w>": 8298,
    "scre": 8299,
    "screen": 8300,
    "screen</w>": 8301,
    "screensho": 8302,
    "screenshot</w>": 8303,
    "scri": 8304,
    "scrip": 8305,
    "script</w>": 8306,
    "script_": 8307,
    "sd": 8308,
    "sd</w>": 8309,
    "sdk</w>": 8310,
    "se": 8311,
    "se\"</w>": 8312,
    "se'</w>": 8313,
    "se</w>": 8314,
    "se_": 8315,
    "se_add_line</w>": 8316,
    "se_name</w>": 8317,
    "se`</w>": 8318,
    "seaborn</w>": 8319,
    "sear": 8320,
    "search": 8321,
    "search</w>": 8322,
    "search_": 8323,
    "search_criteria</w>": 8324,
    "search_string</w>": 8325,
    "searchsorted</w>": 8326,
    "season": 8327,
    "season</w>": 8328,
    "sec</w>": 8329,
    "seconds</w>": 8330,
    "secret'</w>": 8331,
    "secret</w>": 8332,
    "secret_": 8333,
    "secret_access_key</w>": 8334,
    "sect</w>": 8335,
    "section</w>": 8336,
    "sections</w>": 8337,
    "sects</w>": 8338,
    "secure</w>": 8339,
    "security": 8340,
    "security</w>": 8341,
    "securityhandler</w>": 8342,
    "secuti": 8343,
    "sed</w>": 8344,
    "sed_": 8345,
    "see": 8346,
    "see</w>": 8347,
    "seealso</w>": 8348,
    "seed</w>": 8349,
    "seek</w>": 8350,
    "seen</w>": 8351,
    "seg": 8352,
    "segmen": 8353,
    "segment</w>": 8354,
    "segmentation</w>": 8355,
    "segmentlist</w>": 8356,
    "segments</w>": 8357,
    "seid</w>": 8358,
    "sel": 8359,
    "select</w>": 8360,
    "seleni": 8361,
    "selenium</w>": 8362,
    "self</w>": 8363,
    "self_": 8364,
    "selves</w>": 8365,
    "sem": 8366,
    "seman": 8367,
    "semantics</w>": 8368,
    "semver</w>": 8369,
    "sen": 8370,
    "sen</w>": 8371,
    "sen_": 8372,
    "send</w>": 8373,
    "send_": 8374,
    "send_command</w>": 8375,
    "send_message</w>": 8376,
    "sense</w>": 8377,
    "sensible</w>": 8378,
    "sensiti": 8379,
    "sensitive</w>": 8380,
    "sensitivity</w>": 8381,
    "sensor": 8382,
    "sensor</w>": 8383,
    "sensor_": 8384,
    "sensors</w>": 8385,
    "sent'</w>": 8386,
    "sent</w>": 8387,
    "senten": 8388,
    "sentence</w>": 8389,
    "sentences</w>": 8390,
    "sentinel</w>": 8391,
    "sep</w>": 8392,
    "separator</w>": 8393,
    "seq": 8394,
    "seq</w>": 8395,
    "seqid</w>": 8396,
    "seqio</w>": 8397,
    "sequ": 8398,
    "sequen": 8399,
    "sequence'</w>": 8400,
    "sequence</w>": 8401,
    "sequence_": 8402,
    "sequences</w>": 8403,
    "sequent</w>": 8404,
    "sequential</w>": 8405,
    "sequentially</w>": 8406,
    "sequently</w>": 8407,
    "ser": 8408,
    "ser</w>": 8409,
    "seri": 8410,
    "serial</w>": 8411,
    "serial_": 8412,
    "serial_number</w>": 8413,
    "serializ": 8414,
    "serializable</w>": 8415,
    "serialize</w>": 8416,
    "series</w>": 8417,
    "serror</w>": 8418,
    "sert</w>": 8419,
    "serve</w>": 8420,
    "server": 8421,
    "server's</w>": 8422,
    "server</w>": 8423,
    "server_": 8424,
    "servererror</w>": 8425,
    "servers</w>": 8426,
    "servi": 8427,
    "service": 8428,
    "service</w>": 8429,
    "service_": 8430,
    "service_instance</w>": 8431,
    "service_name</w>": 8432,
    "service_sid</w>": 8433,
    "services</w>": 8434,
    "ses": 8435,
    "ses</w>": 8436,
    "session": 8437,
    "session</w>": 8438,
    "session`</w>": 8439,
    "session``</w>": 8440,
    "set": 8441,
    "set'</w>": 8442,
    "set</w>": 8443,
    "set_": 8444,
    "set_defaults</w>": 8445,
    "set_option</w>": 8446,
    "set_property</w>": 8447,
    "set_status</w>": 8448,
    "set_title</w>": 8449,
    "set_visible</w>": 8450,
    "set_xlabel</w>": 8451,
    "set_xlim</w>": 8452,
    "set_ylabel</w>": 8453,
    "set_ylim</w>": 8454,
    "set_yticklabels</w>": 8455,
    "set_yticks</w>": 8456,
    "setattr__</w>": 8457,
    "setcurrentindex</w>": 8458,
    "setdefault</w>": 8459,
    "setgraph": 8460,
    "setgraphval</w>": 8461,
    "setitem__</w>": 8462,
    "sets</w>": 8463,
    "settin": 8464,
    "settings</w>": 8465,
    "setup": 8466,
    "setup_": 8467,
    "setuptools</w>": 8468,
    "setvalue</w>": 8469,
    "seu": 8470,
    "seversion</w>": 8471,
    "sexception": 8472,
    "sf": 8473,
    "sf</w>": 8474,
    "sfile</w>": 8475,
    "sframe</w>": 8476,
    "sg": 8477,
    "sg</w>": 8478,
    "sh": 8479,
    "sh</w>": 8480,
    "sh_": 8481,
    "sha": 8482,
    "sha256</w>": 8483,
    "sha512</w>": 8484,
    "shal</w>": 8485,
    "shape": 8486,
    "shape</w>": 8487,
    "shape`</w>": 8488,
    "shapefile</w>": 8489,
    "she": 8490,
    "shee": 8491,
    "sheet</w>": 8492,
    "shel": 8493,
    "shell</w>": 8494,
    "shi": 8495,
    "shift</w>": 8496,
    "shift_": 8497,
    "shifted</w>": 8498,
    "shifts</w>": 8499,
    "ship</w>": 8500,
    "ships</w>": 8501,
    "sho": 8502,
    "shor": 8503,
    "short": 8504,
    "shortcut</w>": 8505,
    "shortcuts</w>": 8506,
    "shot</w>": 8507,
    "should</w>": 8508,
    "should_": 8509,
    "shouldn't</w>": 8510,
    "show_": 8511,
    "show_progress</w>": 8512,
    "shrin": 8513,
    "shu": 8514,
    "shuffle</w>": 8515,
    "shut": 8516,
    "shutdown</w>": 8517,
    "shutil</w>": 8518,
    "shutit_global_": 8519,
    "shutit_global_object</w>": 8520,
    "si": 8521,
    "si</w>": 8522,
    "si_": 8523,
    "sible</w>": 8524,
    "sibling</w>": 8525,
    "siblings</w>": 8526,
    "sic</w>": 8527,
    "sid'</w>": 8528,
    "sid</w>": 8529,
    "sid_": 8530,
    "side</w>": 8531,
    "sider</w>": 8532,
    "sidered</w>": 8533,
    "sidering</w>": 8534,
    "sig": 8535,
    "sigclip</w>": 8536,
    "sigma</w>": 8537,
    "sigma_": 8538,
    "sign": 8539,
    "sign</w>": 8540,
    "signal": 8541,
    "signal</w>": 8542,
    "signal_": 8543,
    "signals</w>": 8544,
    "signature</w>": 8545,
    "signature_": 8546,
    "signatures</w>": 8547,
    "signed</w>": 8548,
    "signi": 8549,
    "signifi": 8550,
    "significan": 8551,
    "significant</w>": 8552,
    "significantly</w>": 8553,
    "sigterm</w>": 8554,
    "silen": 8555,
    "silently</w>": 8556,
    "silon</w>": 8557,
    "simil": 8558,
    "similar</w>": 8559,
    "similarities</w>": 8560,
    "similarity</w>": 8561,
    "similarly</w>": 8562,
    "simple": 8563,
    "simplefilter</w>": 8564,
    "simpli": 8565,
    "simplify</w>": 8566,
    "simul": 8567,
    "simulate</w>": 8568,
    "simulated</w>": 8569,
    "simulation</w>": 8570,
    "simultaneo": 8571,
    "simultaneously</w>": 8572,
    "sin": 8573,
    "since</w>": 8574,
    "sine</w>": 8575,
    "sing": 8576,
    "sing</w>": 8577,
    "single</w>": 8578,
    "singul": 8579,
    "singular</w>": 8580,
    "singularity</w>": 8581,
    "sink</w>": 8582,
    "sinks</w>": 8583,
    "sion": 8584,
    "sion</w>": 8585,
    "sion_": 8586,
    "sions</w>": 8587,
    "sis</w>": 8588,
    "sis_": 8589,
    "sist</w>": 8590,
    "sisted</w>": 8591,
    "sisten": 8592,
    "sistent</w>": 8593,
    "sisting</w>": 8594,
    "sists</w>": 8595,
    "sistype</w>": 8596,
    "site</w>": 8597,
    "site_name'</w>": 8598,
    "siti": 8599,
    "sities</w>": 8600,
    "sition": 8601,
    "sition</w>": 8602,
    "sitions</w>": 8603,
    "sitive</w>": 8604,
    "sitor": 8605,
    "sitory</w>": 8606,
    "situ": 8607,
    "situation</w>": 8608,
    "situations</w>": 8609,
    "sity</w>": 8610,
    "sity_": 8611,
    "sive</w>": 8612,
    "six</w>": 8613,
    "siz": 8614,
    "size": 8615,
    "size</w>": 8616,
    "size_": 8617,
    "size`</w>": 8618,
    "size``</w>": 8619,
    "sk": 8620,
    "ske": 8621,
    "skew": 8622,
    "skew</w>": 8623,
    "skewness</w>": 8624,
    "skip": 8625,
    "skip</w>": 8626,
    "skip_": 8627,
    "skipped</w>": 8628,
    "skipping</w>": 8629,
    "sky": 8630,
    "skycoord</w>": 8631,
    "skydir</w>": 8632,
    "sl": 8633,
    "sl</w>": 8634,
    "sl_": 8635,
    "slack": 8636,
    "slack</w>": 8637,
    "slash</w>": 8638,
    "slashes</w>": 8639,
    "slave</w>": 8640,
    "slave_": 8641,
    "slaves</w>": 8642,
    "sle": 8643,
    "sleep</w>": 8644,
    "sleep_": 8645,
    "sli": 8646,
    "slice</w>": 8647,
    "slice_": 8648,
    "slices</w>": 8649,
    "slo": 8650,
    "slog</w>": 8651,
    "slot</w>": 8652,
    "slots</w>": 8653,
    "slt</w>": 8654,
    "slu": 8655,
    "slug</w>": 8656,
    "slugify</w>": 8657,
    "sly</w>": 8658,
    "sm": 8659,
    "sm</w>": 8660,
    "smap</w>": 8661,
    "smen": 8662,
    "sment</w>": 8663,
    "sment_": 8664,
    "smethod</w>": 8665,
    "smo": 8666,
    "smology</w>": 8667,
    "smoo": 8668,
    "smooth</w>": 8669,
    "smooth_": 8670,
    "smoothed</w>": 8671,
    "smoothing</w>": 8672,
    "smtp</w>": 8673,
    "sn": 8674,
    "snake_": 8675,
    "sname</w>": 8676,
    "snap": 8677,
    "snapsho": 8678,
    "snapshot</w>": 8679,
    "snapshot_": 8680,
    "snapshots</w>": 8681,
    "snip": 8682,
    "snippet</w>": 8683,
    "snmp</w>": 8684,
    "snmp_": 8685,
    "snps</w>": 8686,
    "so": 8687,
    "so</w>": 8688,
    "soap</w>": 8689,
    "soc": 8690,
    "soc</w>": 8691,
    "soci": 8692,
    "sock</w>": 8693,
    "sock_": 8694,
    "sock_dir</w>": 8695,
    "socke": 8696,
    "socket</w>": 8697,
    "socket_": 8698,
    "sockets</w>": 8699,
    "soil</w>": 8700,
    "sol": 8701,
    "solar</w>": 8702,
    "solar_": 8703,
    "sole</w>": 8704,
    "solution</w>": 8705,
    "solutions</w>": 8706,
    "solve</w>": 8707,
    "solved</w>": 8708,
    "solver</w>": 8709,
    "solvers</w>": 8710,
    "solves</w>": 8711,
    "solving</w>": 8712,
    "some": 8713,
    "some</w>": 8714,
    "somehow</w>": 8715,
    "someone</w>": 8716,
    "somes</w>": 8717,
    "something</w>": 8718,
    "sometimes</w>": 8719,
    "son": 8720,
    "son</w>": 8721,
    "son_": 8722,
    "sor": 8723,
    "sor</w>": 8724,
    "sor_": 8725,
    "sored</w>": 8726,
    "sors</w>": 8727,
    "sort": 8728,
    "sort</w>": 8729,
    "sort_": 8730,
    "sort_keys</w>": 8731,
    "sort_order</w>": 8732,
    "sortby</w>": 8733,
    "sorted</w>": 8734,
    "sorted_": 8735,
    "sound</w>": 8736,
    "soup</w>": 8737,
    "sour": 8738,
    "source": 8739,
    "source</w>": 8740,
    "source_": 8741,
    "source_code</w>": 8742,
    "source_dir</w>": 8743,
    "source_file</w>": 8744,
    "sources</w>": 8745,
    "sp": 8746,
    "sp</w>": 8747,
    "space</w>": 8748,
    "spar": 8749,
    "spark": 8750,
    "spark</w>": 8751,
    "sparkcontext</w>": 8752,
    "sparql</w>": 8753,
    "sparse</w>": 8754,
    "sparsity</w>": 8755,
    "spath</w>": 8756,
    "spati": 8757,
    "spatial": 8758,
    "spaw": 8759,
    "spawn</w>": 8760,
    "spawned</w>": 8761,
    "spe": 8762,
    "spec": 8763,
    "spec</w>": 8764,
    "speci": 8765,
    "special</w>": 8766,
    "special_": 8767,
    "specifi": 8768,
    "specific</w>": 8769,
    "specific_": 8770,
    "specifically</w>": 8771,
    "specification</w>": 8772,
    "specifications</w>": 8773,
    "specified</w>": 8774,
    "specifies</w>": 8775,
    "specify</w>": 8776,
    "specifying</w>": 8777,
    "specimen_name'</w>": 8778,
    "spect</w>": 8779,
    "spection</w>": 8780,
    "spector</w>": 8781,
    "speech</w>": 8782,
    "speed</w>": 8783,
    "spheri": 8784,
    "spherical</w>": 8785,
    "spi": 8786,
    "spice</w>": 8787,
    "spike</w>": 8788,
    "spike_": 8789,
    "spikes</w>": 8790,
    "spin": 8791,
    "spin1": 8792,
    "spin2": 8793,
    "split</w>": 8794,
    "split_": 8795,
    "splitext_": 8796,
    "splitext_plus</w>": 8797,
    "spring</w>": 8798,
    "spy": 8799,
    "spy</w>": 8800,
    "spyder</w>": 8801,
    "sq": 8802,
    "sql": 8803,
    "sql</w>": 8804,
    "sql_": 8805,
    "sqlal": 8806,
    "sqlalchemy</w>": 8807,
    "sqlite": 8808,
    "sqlite3</w>": 8809,
    "sqlquery</w>": 8810,
    "sqrt</w>": 8811,
    "squ": 8812,
    "square</w>": 8813,
    "squared</w>": 8814,
    "squared_": 8815,
    "squares</w>": 8816,
    "sque": 8817,
    "squeeze</w>": 8818,
    "squish_constan": 8819,
    "squish_constant_": 8820,
    "squish_constant_4d</w>": 8821,
    "sr": 8822,
    "sr</w>": 8823,
    "src</w>": 8824,
    "src_": 8825,
    "src_dir</w>": 8826,
    "srcdir</w>": 8827,
    "srcs</w>": 8828,
    "ss": 8829,
    "ss1</w>": 8830,
    "ss2</w>": 8831,
    "ss</w>": 8832,
    "ss_": 8833,
    "ssh": 8834,
    "ssh</w>": 8835,
    "ssh_": 8836,
    "ssi": 8837,
    "ssl": 8838,
    "ssl</w>": 8839,
    "ssl_": 8840,
    "sslcontext</w>": 8841,
    "st": 8842,
    "st</w>": 8843,
    "st_": 8844,
    "st_mode</w>": 8845,
    "stack": 8846,
    "stack</w>": 8847,
    "stackoverflow</w>": 8848,
    "stal": 8849,
    "stan": 8850,
    "stance</w>": 8851,
    "stand": 8852,
    "stand</w>": 8853,
    "standard</w>": 8854,
    "standardi": 8855,
    "standardize</w>": 8856,
    "standardized</w>": 8857,
    "stanz": 8858,
    "stanza</w>": 8859,
    "star": 8860,
    "start": 8861,
    "start</w>": 8862,
    "start_": 8863,
    "start_date</w>": 8864,
    "start_idx</w>": 8865,
    "start_index</w>": 8866,
    "start_pos</w>": 8867,
    "start_time</w>": 8868,
    "start`</w>": 8869,
    "startdate</w>": 8870,
    "started</w>": 8871,
    "starting</w>": 8872,
    "starts": 8873,
    "startswith</w>": 8874,
    "stat": 8875,
    "state": 8876,
    "state</w>": 8877,
    "state_": 8878,
    "state_change</w>": 8879,
    "state_m</w>": 8880,
    "state_machine</w>": 8881,
    "state`</w>": 8882,
    "stateful</w>": 8883,
    "states</w>": 8884,
    "station": 8885,
    "stationary</w>": 8886,
    "stats</w>": 8887,
    "statu": 8888,
    "status\"</w>": 8889,
    "status'</w>": 8890,
    "status</w>": 8891,
    "status_": 8892,
    "status_code</w>": 8893,
    "std": 8894,
    "std</w>": 8895,
    "stddevs</w>": 8896,
    "stderr</w>": 8897,
    "stdin</w>": 8898,
    "stdout</w>": 8899,
    "ste": 8900,
    "sted</w>": 8901,
    "stemp</w>": 8902,
    "step</w>": 8903,
    "step_": 8904,
    "step_size</w>": 8905,
    "steps</w>": 8906,
    "ster": 8907,
    "ster</w>": 8908,
    "ster_": 8909,
    "stering</w>": 8910,
    "sters</w>": 8911,
    "stic</w>": 8912,
    "stics</w>": 8913,
    "stil": 8914,
    "still</w>": 8915,
    "stimate</w>": 8916,
    "stin": 8917,
    "stitute</w>": 8918,
    "stitute_id</w>": 8919,
    "stitution</w>": 8920,
    "stitutions</w>": 8921,
    "stly</w>": 8922,
    "stm": 8923,
    "stm</w>": 8924,
    "stmt</w>": 8925,
    "stmt_": 8926,
    "stmt_idx</w>": 8927,
    "stmts</w>": 8928,
    "sto": 8929,
    "stoichio": 8930,
    "stone</w>": 8931,
    "stop": 8932,
    "stopped</w>": 8933,
    "stopping</w>": 8934,
    "store</w>": 8935,
    "store_": 8936,
    "stp_": 8937,
    "stp_mst_": 8938,
    "str": 8939,
    "str</w>": 8940,
    "str__</w>": 8941,
    "str`</w>": 8942,
    "str``</w>": 8943,
    "stract": 8944,
    "stract</w>": 8945,
    "strain</w>": 8946,
    "strained</w>": 8947,
    "straint</w>": 8948,
    "straints</w>": 8949,
    "strate": 8950,
    "strategy</w>": 8951,
    "stre": 8952,
    "stream": 8953,
    "stream</w>": 8954,
    "stream_": 8955,
    "streams</w>": 8956,
    "streng": 8957,
    "strength</w>": 8958,
    "stret": 8959,
    "stretch</w>": 8960,
    "strftime</w>": 8961,
    "stri": 8962,
    "strict</w>": 8963,
    "strict_": 8964,
    "strictly</w>": 8965,
    "strike</w>": 8966,
    "strin": 8967,
    "string": 8968,
    "string\"\"\"</w>": 8969,
    "string\"</w>": 8970,
    "string'</w>": 8971,
    "string</w>": 8972,
    "string_": 8973,
    "string_buffer</w>": 8974,
    "string_types</w>": 8975,
    "string`</w>": 8976,
    "string``</w>": 8977,
    "strings</w>": 8978,
    "stringtocharp</w>": 8979,
    "strip": 8980,
    "strip</w>": 8981,
    "stripped</w>": 8982,
    "strp": 8983,
    "strptime</w>": 8984,
    "struc": 8985,
    "struct</w>": 8986,
[...]
